<unk>	0
<s>	0
</s>	0
en	-0
er	-1
▁d	-2
in	-3
▁t	-4
ch	-5
▁a	-6
on	-7
▁th	-8
es	-9
is	-10
un	-11
▁w	-12
it	-13
▁s	-14
at	-15
ie	-16
▁the	-17
or	-18
an	-19
re	-20
ich	-21
▁b	-22
ion	-23
▁in	-24
▁o	-25
▁m	-26
al	-27
▁f	-28
ar	-29
ro	-30
te	-31
▁e	-32
le	-33
ent	-34
▁p	-35
▁an	-36
as	-37
▁h	-38
▁n	-39
▁c	-40
▁un	-41
ge	-42
us	-43
ung	-44
▁of	-45
▁to	-46
▁die	-47
▁der	-48
▁v	-49
▁E	-50
▁be	-51
om	-52
ll	-53
ur	-54
▁I	-55
ing	-56
▁and	-57
▁A	-58
▁und	-59
▁is	-60
ed	-61
ir	-62
ig	-63
▁S	-64
st	-65
▁z	-66
▁M	-67
▁P	-68
▁ein	-69
em	-70
ra	-71
ic	-72
im	-73
▁g	-74
eit	-75
▁B	-76
ut	-77
icht	-78
ies	-79
el	-80
▁re	-81
ol	-82
ation	-83
id	-84
▁D	-85
am	-86
sch	-87
ter	-88
omm	-89
▁T	-90
ten	-91
rop	-92
▁W	-93
ul	-94
der	-95
▁that	-96
ber	-97
il	-98
ve	-99
▁F	-100
lich	-101
hr	-102
▁zu	-103
den	-104
gen	-105
ct	-106
et	-107
▁K	-108
▁au	-109
isch	-110
▁R	-111
▁wh	-112
ür	-113
▁das	-114
▁V	-115
▁l	-116
▁den	-117
urop	-118
▁C	-119
▁G	-120
▁k	-121
ein	-122
▁for	-123
▁ha	-124
▁on	-125
ot	-126
um	-127
▁H	-128
ly	-129
iss	-130
ere	-131
▁wir	-132
res	-133
▁Europ	-134
▁ge	-135
▁U	-136
▁we	-137
ort	-138
ier	-139
▁al	-140
▁im	-141
ff	-142
de	-143
▁dies	-144
os	-145
▁so	-146
▁Th	-147
tr	-148
▁con	-149
ben	-150
ver	-151
ce	-152
▁ver	-153
men	-154
▁von	-155
ommiss	-156
▁this	-157
and	-158
▁it	-159
est	-160
▁für	-161
▁er	-162
▁des	-163
ach	-164
▁pro	-165
▁as	-166
ommission	-167
▁ist	-168
▁auf	-169
▁are	-170
▁Ver	-171
ft	-172
ment	-173
▁Un	-174
▁L	-175
kt	-176
ill	-177
ischen	-178
ith	-179
ab	-180
▁nicht	-181
ess	-182
▁In	-183
ow	-184
▁not	-185
uld	-186
▁de	-187
▁with	-188
▁Z	-189
pp	-190
ould	-191
▁which	-192
ke	-193
▁N	-194
▁ne	-195
▁have	-196
ungen	-197
her	-198
▁als	-199
op	-200
▁da	-201
ident	-202
▁dass	-203
▁Europe	-204
▁wer	-205
ts	-206
iv	-207
▁dem	-208
▁st	-209
la	-210
ind	-211
ate	-212
▁eine	-213
▁se	-214
sp	-215
ive	-216
▁j	-217
▁werden	-218
▁es	-219
for	-220
▁Par	-221
ament	-222
ust	-223
▁-	-224
über	-225
▁mit	-226
▁Re	-227
än	-228
oun	-229
end	-230
if	-231
▁le	-232
▁St	-233
err	-234
▁ex	-235
ial	-236
▁ich	-237
▁all	-238
▁su	-239
ity	-240
ay	-241
lie	-242
ant	-243
00	-244
nen	-245
▁auch	-246
qu	-247
▁will	-248
ck	-249
ann	-250
ens	-251
hal	-252
ne	-253
▁r	-254
▁An	-255
▁vor	-256
we	-257
ib	-258
ah	-259
▁Parl	-260
▁uns	-261
ht	-262
▁The	-263
▁y	-264
aus	-265
▁by	-266
▁European	-267
igen	-268
ungs	-269
▁sich	-270
sen	-271
ug	-272
▁Mr	-273
ste	-274
▁ab	-275
port	-276
▁über	-277
und	-278
▁me	-279
▁sh	-280
och	-281
ik	-282
▁Union	-283
▁Commission	-284
hen	-285
ad	-286
uss	-287
ions	-288
scha	-289
rä	-290
ain	-291
▁res	-292
pe	-293
▁1	-294
▁has	-295
be	-296
our	-297
iel	-298
ted	-299
ern	-300
▁Herr	-301
▁at	-302
▁Fra	-303
▁Be	-304
ers	-305
art	-306
olit	-307
uf	-308
ges	-309
▁aus	-310
▁or	-311
ist	-312
▁um	-313
ure	-314
▁wird	-315
▁We	-316
schaft	-317
etz	-318
heit	-319
ien	-320
up	-321
▁wie	-322
▁hat	-323
tz	-324
itte	-325
▁J	-326
▁Aus	-327
me	-328
ahr	-329
uch	-330
▁Ich	-331
▁Kommission	-332
▁sind	-333
▁do	-334
▁also	-335
▁wor	-336
▁i	-337
▁En	-338
llen	-339
ische	-340
▁haben	-341
▁com	-342
▁sch	-343
▁was	-344
▁ma	-345
▁zur	-346
▁Die	-347
▁Sch	-348
▁Ber	-349
▁Er	-350
▁2	-351
gr	-352
beit	-353
enn	-354
▁Europä	-355
▁Vor	-356
chte	-357
rom	-358
keit	-359
ise	-360
▁Wir	-361
▁Pro	-362
▁O	-363
räs	-364
ue	-365
▁would	-366
▁Pres	-367
ates	-368
ran	-369
▁dar	-370
lichen	-371
▁Ar	-372
eren	-373
▁there	-374
all	-375
räsident	-376
ard	-377
ord	-378
▁sie	-379
se	-380
ember	-381
▁daß	-382
ige	-383
dern	-384
▁mö	-385
ational	-386
gt	-387
▁he	-388
ations	-389
aten	-390
od	-391
ese	-392
▁should	-393
ous	-394
tern	-395
▁ag	-396
▁reg	-397
▁sein	-398
▁ent	-399
ze	-400
▁di	-401
▁man	-402
ect	-403
ön	-404
▁us	-405
ther	-406
▁must	-407
▁President	-408
▁am	-409
▁en	-410
▁our	-411
ak	-412
är	-413
cht	-414
esch	-415
ou	-416
▁from	-417
ore	-418
ert	-419
du	-420
▁Bericht	-421
üs	-422
urch	-423
th	-424
iament	-425
ical	-426
▁part	-427
▁Ein	-428
▁ad	-429
▁unter	-430
ms	-431
▁but	-432
age	-433
ble	-434
▁Präsident	-435
ip	-436
ud	-437
able	-438
▁been	-439
▁Parlament	-440
ult	-441
ang	-442
▁Mit	-443
▁einer	-444
▁Ab	-445
ition	-446
ommen	-447
▁fa	-448
▁diese	-449
▁nach	-450
rit	-451
iz	-452
▁Ent	-453
ick	-454
cil	-455
cial	-456
out	-457
cc	-458
▁prop	-459
▁Sie	-460
▁It	-461
▁sa	-462
ün	-463
ühr	-464
▁comm	-465
▁kön	-466
ub	-467
▁coun	-468
ast	-469
▁app	-470
form	-471
▁li	-472
▁comp	-473
▁qu	-474
▁"	-475
▁Parliament	-476
ish	-477
elt	-478
anz	-479
▁Ge	-480
▁go	-481
▁report	-482
▁bet	-483
ction	-484
ät	-485
og	-486
ome	-487
▁Gr	-488
uß	-489
▁dieser	-490
▁bei	-491
olle	-492
▁can	-493
ok	-494
hl	-495
mer	-496
▁you	-497
ost	-498
con	-499
▁Member	-500
ute	-501
mp	-502
ör	-503
▁EU	-504
▁ch	-505
ger	-506
ary	-507
vel	-508
▁müs	-509
▁einen	-510
liche	-511
▁its	-512
▁countr	-513
▁pos	-514
▁ob	-515
ieren	-516
sta	-517
▁Europäischen	-518
ear	-519
▁Coun	-520
ution	-521
▁dis	-522
▁möchte	-523
chen	-524
▁Council	-525
reat	-526
▁ste	-527
ass	-528
ierung	-529
ight	-530
▁gro	-531
▁pr	-532
▁more	-533
▁mein	-534
glie	-535
▁durch	-536
▁polit	-537
▁müssen	-538
ank	-539
▁propos	-540
zu	-541
▁noch	-542
imm	-543
rag	-544
oll	-545
oc	-546
▁zw	-547
pt	-548
▁imp	-549
▁gen	-550
▁like	-551
nah	-552
▁(	-553
▁alle	-554
igh	-555
ress	-556
he	-557
▁zum	-558
oin	-559
ely	-560
▁inc	-561
fen	-562
▁ih	-563
ime	-564
ose	-565
olic	-566
gan	-567
▁Mitglie	-568
▁work	-569
▁these	-570
▁soll	-571
lo	-572
▁fin	-573
▁diesem	-574
▁kann	-575
gra	-576
▁cons	-577
▁conc	-578
▁who	-579
99	-580
ance	-581
▁ber	-582
▁need	-583
▁nur	-584
▁können	-585
▁wur	-586
▁spe	-587
fore	-588
▁other	-589
ally	-590
▁This	-591
▁Reg	-592
▁their	-593
glich	-594
▁aber	-595
▁bes	-596
▁Das	-597
lin	-598
ück	-599
lic	-600
ffen	-601
▁Frau	-602
▁States	-603
▁pre	-604
▁Comm	-605
▁cont	-606
▁bec	-607
▁Es	-608
▁kein	-609
▁Kon	-610
hmen	-611
▁they	-612
▁te	-613
▁pe	-614
ments	-615
vent	-616
rat	-617
ap	-618
igkeit	-619
sam	-620
▁oder	-621
▁sp	-622
ktion	-623
▁Rat	-624
▁wenn	-625
▁very	-626
▁str	-627
ement	-628
cy	-629
▁co	-630
wo	-631
▁import	-632
ag	-633
▁polic	-634
iert	-635
usam	-636
▁jed	-637
▁Arbeit	-638
pport	-639
▁Ma	-640
▁Mitglied	-641
yste	-642
olitik	-643
ced	-644
▁int	-645
sib	-646
usammen	-647
wer	-648
▁war	-649
▁200	-650
▁gegen	-651
▁no	-652
▁weit	-653
▁up	-654
au	-655
▁ges	-656
schen	-657
▁out	-658
▁ta	-659
ause	-660
ice	-661
gram	-662
▁ra	-663
are	-664
sicht	-665
sten	-666
▁my	-667
▁one	-668
one	-669
ugh	-670
iden	-671
uropä	-672
ject	-673
▁Unter	-674
ru	-675
▁sehr	-676
ign	-677
▁what	-678
ide	-679
rie	-680
ark	-681
▁ihr	-682
ähr	-683
stit	-684
erst	-685
▁Vorsch	-686
ative	-687
tschaft	-688
▁Mitgliedsta	-689
▁inter	-690
▁exp	-691
lung	-692
reich	-693
leich	-694
ittel	-695
erv	-696
ütz	-697
▁Ä	-698
▁Jahr	-699
▁countries	-700
▁eff	-701
wick	-702
▁leg	-703
▁De	-704
ließ	-705
▁hin	-706
▁about	-707
▁europä	-708
teil	-709
▁acc	-710
ated	-711
führ	-712
▁dec	-713
rect	-714
▁iss	-715
ring	-716
itu	-717
ism	-718
utz	-719
atter	-720
▁if	-721
ious	-722
▁wo	-723
ople	-724
ase	-725
mend	-726
che	-727
▁einem	-728
▁Dies	-729
▁proposal	-730
▁ind	-731
cess	-732
▁year	-733
▁For	-734
ider	-735
velop	-736
arbeit	-737
▁op	-738
▁only	-739
änd	-740
ong	-741
lan	-742
nung	-743
onder	-744
ia	-745
lä	-746
▁tra	-747
mein	-748
ever	-749
etzt	-750
ces	-751
▁Men	-752
ities	-753
fe	-754
ink	-755
▁unser	-756
assen	-757
▁Mitgliedstaaten	-758
▁dieses	-759
fahr	-760
▁mehr	-761
▁poin	-762
▁time	-763
ree	-764
▁Auf	-765
auf	-766
iven	-767
nder	-768
▁because	-769
tet	-770
▁people	-771
sche	-772
▁Änder	-773
bar	-774
▁national	-775
▁Kolle	-776
▁Se	-777
▁important	-778
ität	-779
▁Um	-780
alt	-781
▁policy	-782
▁intern	-783
▁again	-784
lear	-785
▁any	-786
ittee	-787
ken	-788
▁tran	-789
▁muss	-790
▁wicht	-791
▁Der	-792
▁partic	-793
irst	-794
▁develop	-795
geb	-796
rei	-797
blem	-798
▁Le	-799
▁sol	-800
wend	-801
▁hier	-802
▁fe	-803
lag	-804
tre	-805
▁new	-806
▁gew	-807
▁now	-808
halb	-809
ven	-810
ituation	-811
▁sub	-812
▁bereit	-813
ri	-814
chn	-815
igt	-816
▁Zusammen	-817
icher	-818
fl	-819
ility	-820
unity	-821
▁concern	-822
ings	-823
▁ihre	-824
ahl	-825
conom	-826
▁act	-827
ures	-828
▁vie	-829
▁support	-830
amp	-831
los	-832
▁Menschen	-833
200	-834
▁kon	-835
▁rec	-836
änder	-837
lar	-838
wir	-839
ular	-840
▁dam	-841
xt	-842
▁la	-843
ibt	-844
stütz	-845
▁wurde	-846
llt	-847
▁just	-848
leg	-849
nahmen	-850
land	-851
fol	-852
ild	-853
▁Grund	-854
▁make	-855
halten	-856
hand	-857
ights	-858
▁say	-859
▁ins	-860
▁some	-861
legen	-862
inis	-863
▁fact	-864
ire	-865
ine	-866
ors	-867
▁per	-868
▁Verb	-869
▁So	-870
ite	-871
hör	-872
ific	-873
chts	-874
ange	-875
▁As	-876
uman	-877
▁ar	-878
isation	-879
ives	-880
ian	-881
wor	-882
▁how	-883
▁such	-884
mal	-885
▁into	-886
pect	-887
lle	-888
▁gr	-889
▁inv	-890
ov	-891
trä	-892
enz	-893
pon	-894
▁3	-895
▁pres	-896
ument	-897
▁take	-898
ween	-899
▁diff	-900
▁prov	-901
▁therefore	-902
ystem	-903
▁way	-904
igung	-905
vern	-906
▁between	-907
▁Entwick	-908
▁viel	-909
hin	-910
ha	-911
unkt	-912
▁rel	-913
schie	-914
▁Gem	-915
ner	-916
▁Europäische	-917
▁Maß	-918
now	-919
▁son	-920
nehmen	-921
str	-922
▁199	-923
▁direct	-924
iger	-925
mit	-926
▁Richt	-927
▁Te	-928
kommen	-929
ame	-930
▁quest	-931
▁deb	-932
▁tak	-933
led	-934
▁econom	-935
▁Frage	-936
▁clear	-937
äch	-938
für	-939
sible	-940
▁when	-941
wie	-942
ublic	-943
schuss	-944
▁Gemein	-945
▁those	-946
▁Europa	-947
▁being	-948
▁Änderungs	-949
gel	-950
▁particular	-951
ision	-952
ual	-953
▁diesen	-954
▁international	-955
uro	-956
▁eines	-957
issen	-958
ues	-959
erung	-960
formation	-961
zial	-962
ustr	-963
▁sondern	-964
kte	-965
▁made	-966
▁zwischen	-967
▁Art	-968
▁Herrn	-969
▁Zeit	-970
▁first	-971
▁ref	-972
▁political	-973
▁rep	-974
isten	-975
▁wel	-976
iti	-977
schließ	-978
▁bas	-979
▁belie	-980
iff	-981
▁disc	-982
halt	-983
▁damit	-984
fr	-985
ob	-986
hn	-987
ote	-988
▁produ	-989
▁them	-990
rauch	-991
weit	-992
zie	-993
estimm	-994
▁amend	-995
▁than	-996
▁were	-997
▁Ih	-998
stitution	-999
▁pla	-1000
/200	-1001
▁Bed	-1002
gin	-1003
▁know	-1004
▁agre	-1005
▁Bür	-1006
▁mich	-1007
▁human	-1008
▁great	-1009
▁Mein	-1010
eration	-1011
▁respon	-1012
abe	-1013
bst	-1014
▁Ges	-1015
▁gemein	-1016
▁over	-1017
▁mark	-1018
forder	-1019
▁groß	-1020
ld	-1021
zeit	-1022
▁emp	-1023
▁ro	-1024
weise	-1025
▁Fin	-1026
5-	-1027
▁Committee	-1028
▁habe	-1029
▁ass	-1030
▁point	-1031
tw	-1032
nis	-1033
▁Haus	-1034
▁keine	-1035
ats	-1036
acht	-1037
icherheit	-1038
get	-1039
▁gibt	-1040
ty	-1041
▁denn	-1042
ds	-1043
▁jedoch	-1044
ards	-1045
▁requ	-1046
fin	-1047
▁europäischen	-1048
ans	-1049
olog	-1050
cept	-1051
▁end	-1052
ragen	-1053
ateg	-1054
▁Commissioner	-1055
ating	-1056
atz	-1057
enden	-1058
▁anderen	-1059
▁sowie	-1060
▁bereits	-1061
▁Land	-1062
uen	-1063
▁Bere	-1064
elbst	-1065
lement	-1066
day	-1067
▁issue	-1068
tro	-1069
▁see	-1070
▁beste	-1071
▁Vorschlag	-1072
▁dann	-1073
▁cour	-1074
ient	-1075
eral	-1076
▁right	-1077
ile	-1078
▁under	-1079
ionen	-1080
eth	-1081
ertain	-1082
ved	-1083
▁fest	-1084
▁ac	-1085
▁ganz	-1086
kehr	-1087
▁think	-1088
▁off	-1089
▁believe	-1090
▁unsere	-1091
amen	-1092
▁Sp	-1093
▁tr	-1094
äl	-1095
▁rights	-1096
pro	-1097
▁Con	-1098
ändern	-1099
▁meas	-1100
linie	-1101
rechen	-1102
itz	-1103
▁add	-1104
▁Bereich	-1105
wn	-1106
ack	-1107
▁weiter	-1108
▁fund	-1109
▁market	-1110
▁hand	-1111
▁bis	-1112
achen	-1113
iron	-1114
▁Sta	-1115
▁einz	-1116
ope	-1117
▁Maßnahmen	-1118
▁nat	-1119
▁heute	-1120
tens	-1121
read	-1122
ised	-1123
isk	-1124
▁Al	-1125
els	-1126
▁rem	-1127
entlich	-1128
▁against	-1129
ural	-1130
very	-1131
▁Parlaments	-1132
viron	-1133
vironment	-1134
▁wür	-1135
isen	-1136
▁her	-1137
▁Rechts	-1138
ordnung	-1139
inister	-1140
iß	-1141
▁many	-1142
ull	-1143
▁weil	-1144
▁public	-1145
▁even	-1146
▁Ste	-1147
▁stat	-1148
▁fre	-1149
off	-1150
vor	-1151
▁consider	-1152
▁view	-1153
dem	-1154
▁far	-1155
▁question	-1156
▁order	-1157
kl	-1158
erson	-1159
welt	-1160
ett	-1161
▁well	-1162
isl	-1163
▁There	-1164
icult	-1165
▁transp	-1166
orte	-1167
▁debate	-1168
rim	-1169
eschä	-1170
▁Bürger	-1171
fü	-1172
▁Mrs	-1173
▁social	-1174
▁conf	-1175
▁gemeinsam	-1176
ss	-1177
gend	-1178
entr	-1179
error	-1180
▁Entwicklung	-1181
ene	-1182
ahmen	-1183
ention	-1184
pr	-1185
▁geht	-1186
▁par	-1187
fall	-1188
▁two	-1189
loy	-1190
▁4	-1191
▁certain	-1192
▁where	-1193
ulation	-1194
▁Rahmen	-1195
▁matter	-1196
▁adop	-1197
▁want	-1198
llung	-1199
bens	-1200
▁does	-1201
oth	-1202
lagen	-1203
▁agreement	-1204
isse	-1205
▁within	-1206
▁incl	-1207
▁vom	-1208
ough	-1209
sel	-1210
▁5	-1211
▁Ch	-1212
vention	-1213
▁Zu	-1214
itiz	-1215
▁Kollegen	-1216
richt	-1217
▁darauf	-1218
▁regard	-1219
▁cann	-1220
▁years	-1221
act	-1222
▁Ausschuss	-1223
arkt	-1224
▁cannot	-1225
hne	-1226
▁immer	-1227
▁had	-1228
▁Kommiss	-1229
ischer	-1230
▁same	-1231
ited	-1232
▁Hin	-1233
▁mir	-1234
▁lie	-1235
▁here	-1236
▁That	-1237
fahren	-1238
▁denen	-1239
▁ange	-1240
▁How	-1241
▁situation	-1242
cted	-1243
▁bring	-1244
inc	-1245
▁program	-1246
▁Community	-1247
▁ger	-1248
▁Da	-1249
setz	-1250
▁could	-1251
urr	-1252
▁Wh	-1253
vernment	-1254
scheid	-1255
mittel	-1256
▁unserer	-1257
▁economic	-1258
▁Gemeinschaft	-1259
▁fut	-1260
isp	-1261
raft	-1262
▁Kommissar	-1263
▁measures	-1264
geben	-1265
ready	-1266
eschäft	-1267
▁aut	-1268
▁development	-1269
▁future	-1270
▁effect	-1271
▁already	-1272
ving	-1273
nahme	-1274
▁use	-1275
▁wirk	-1276
geord	-1277
▁possible	-1278
▁incre	-1279
bes	-1280
▁wieder	-1281
▁directive	-1282
▁legisl	-1283
gesch	-1284
5-0	-1285
▁mon	-1286
▁Sicherheit	-1287
▁Mittel	-1288
okrat	-1289
▁appro	-1290
erg	-1291
▁ens	-1292
▁zwe	-1293
ional	-1294
▁Inter	-1295
öglich	-1296
▁good	-1297
ständ	-1298
▁Euro	-1299
geordne	-1300
▁hel	-1301
lemen	-1302
▁course	-1303
ory	-1304
cond	-1305
▁prote	-1306
▁unterstütz	-1307
▁wichtig	-1308
▁techn	-1309
▁process	-1310
▁system	-1311
äre	-1312
▁ask	-1313
ied	-1314
▁every	-1315
▁discuss	-1316
▁level	-1317
▁environment	-1318
itizens	-1319
▁Nach	-1320
▁Richtlinie	-1321
▁ach	-1322
▁most	-1323
▁real	-1324
▁selbst	-1325
▁Umwelt	-1326
▁Wie	-1327
ority	-1328
▁sollten	-1329
ict	-1330
ondere	-1331
▁able	-1332
▁said	-1333
▁too	-1334
ätz	-1335
▁dafür	-1336
▁verb	-1337
▁Str	-1338
▁still	-1339
▁doch	-1340
les	-1341
gehen	-1342
öff	-1343
▁num	-1344
udget	-1345
▁muß	-1346
▁country	-1347
such	-1348
▁contin	-1349
work	-1350
essen	-1351
▁letz	-1352
▁sollte	-1353
▁Gro	-1354
▁meine	-1355
▁sagen	-1356
▁finan	-1357
▁wurden	-1358
▁hope	-1359
▁your	-1360
▁Dem	-1361
ac	-1362
▁organ	-1363
träge	-1364
▁gleich	-1365
▁'	-1366
operation	-1367
utions	-1368
ently	-1369
▁att	-1370
▁bin	-1371
ful	-1372
▁etw	-1373
▁group	-1374
▁Abgeordne	-1375
rimin	-1376
▁resol	-1377
rough	-1378
▁jetzt	-1379
▁allem	-1380
▁put	-1381
halts	-1382
▁posit	-1383
▁taken	-1384
▁Im	-1385
lish	-1386
▁ihrer	-1387
▁Des	-1388
ös	-1389
ritt	-1390
▁own	-1391
▁Geb	-1392
▁may	-1393
▁much	-1394
▁ele	-1395
▁pra	-1396
▁Politik	-1397
äm	-1398
▁Or	-1399
ves	-1400
▁hal	-1401
▁Ihnen	-1402
incip	-1403
▁last	-1404
▁princip	-1405
▁Berichterst	-1406
wed	-1407
▁Them	-1408
▁citizens	-1409
ices	-1410
▁ter	-1411
▁curr	-1412
vers	-1413
inn	-1414
feren	-1415
isierung	-1416
trag	-1417
▁dazu	-1418
▁case	-1419
orteur	-1420
▁achie	-1421
▁spec	-1422
▁gu	-1423
▁However	-1424
reit	-1425
▁Wenn	-1426
pporteur	-1427
hol	-1428
▁wen	-1429
air	-1430
▁Wirtschaft	-1431
▁common	-1432
ster	-1433
▁examp	-1434
▁Ziel	-1435
▁Verein	-1436
▁problem	-1437
ält	-1438
fä	-1439
▁sc	-1440
satz	-1441
klär	-1442
▁both	-1443
uer	-1444
way	-1445
ispiel	-1446
▁through	-1447
▁number	-1448
ismus	-1449
▁today	-1450
ason	-1451
▁then	-1452
▁rapporteur	-1453
▁gesch	-1454
ail	-1455
▁neg	-1456
punkt	-1457
zus	-1458
lage	-1459
▁serv	-1460
urther	-1461
▁Me	-1462
ater	-1463
ßen	-1464
▁his	-1465
▁Mon	-1466
▁sozial	-1467
omp	-1468
▁democ	-1469
besondere	-1470
ühren	-1471
öglichkeit	-1472
kun	-1473
wort	-1474
▁information	-1475
▁ser	-1476
derung	-1477
▁Au	-1478
heiten	-1479
red	-1480
▁invol	-1481
▁fra	-1482
▁wollen	-1483
arge	-1484
bat	-1485
öl	-1486
blems	-1487
▁world	-1488
▁why	-1489
ürlich	-1490
ekt	-1491
itä	-1492
▁thank	-1493
genommen	-1494
ouse	-1495
eln	-1496
▁Diese	-1497
▁2000	-1498
▁reason	-1499
antrag	-1500
▁ohne	-1501
ages	-1502
▁interest	-1503
▁get	-1504
▁Fraktion	-1505
lau	-1506
▁respect	-1507
▁ausge	-1508
reichen	-1509
ruck	-1510
wohl	-1511
▁Ha	-1512
gangen	-1513
▁law	-1514
ince	-1515
▁einige	-1516
ma	-1517
▁nun	-1518
▁Problem	-1519
▁lo	-1520
man	-1521
beral	-1522
▁meiner	-1523
ting	-1524
▁area	-1525
▁budget	-1526
▁amendments	-1527
▁som	-1528
▁möglich	-1529
▁Änderungsan	-1530
tegr	-1531
▁object	-1532
fung	-1533
▁aller	-1534
alth	-1535
uct	-1536
uring	-1537
ret	-1538
▁example	-1539
itiative	-1540
zeich	-1541
omen	-1542
tend	-1543
▁begr	-1544
antwort	-1545
▁cooperation	-1546
schieden	-1547
▁insbesondere	-1548
▁est	-1549
trib	-1550
▁action	-1551
▁ensure	-1552
kon	-1553
ital	-1554
stimm	-1555
licher	-1556
itions	-1557
▁Fl	-1558
▁Zusammenarbeit	-1559
alk	-1560
▁sec	-1561
▁impro	-1562
▁auth	-1563
▁würde	-1564
kunft	-1565
io	-1566
gese	-1567
▁car	-1568
▁present	-1569
▁necess	-1570
bal	-1571
▁before	-1572
▁Recht	-1573
▁Fragen	-1574
stellen	-1575
▁Beit	-1576
▁wissen	-1577
▁legal	-1578
▁allen	-1579
ordin	-1580
▁Rates	-1581
ium	-1582
▁best	-1583
▁schon	-1584
affen	-1585
▁means	-1586
▁position	-1587
tellt	-1588
/2001	-1589
äß	-1590
▁Jahren	-1591
▁sim	-1592
▁Finanz	-1593
▁tun	-1594
ether	-1595
▁sect	-1596
ount	-1597
▁main	-1598
br	-1599
▁Hand	-1600
▁employ	-1601
own	-1602
▁vote	-1603
▁könn	-1604
wä	-1605
▁financial	-1606
öß	-1607
▁andere	-1608
▁Länder	-1609
ften	-1610
ablish	-1611
▁Bet	-1612
▁wäre	-1613
▁Welt	-1614
▁machen	-1615
assung	-1616
▁stand	-1617
fter	-1618
fer	-1619
ace	-1620
hang	-1621
▁Fall	-1622
ade	-1623
zug	-1624
aff	-1625
▁maj	-1626
ically	-1627
rechte	-1628
gele	-1629
▁includ	-1630
▁6	-1631
äng	-1632
▁problems	-1633
▁rat	-1634
igten	-1635
lossen	-1636
ollow	-1637
▁neuen	-1638
▁Program	-1639
▁Entscheid	-1640
rü	-1641
▁implement	-1642
arm	-1643
▁Her	-1644
▁mak	-1645
zeug	-1646
▁set	-1647
▁give	-1648
▁issues	-1649
walt	-1650
▁repres	-1651
▁industr	-1652
▁full	-1653
▁opin	-1654
▁Minister	-1655
lus	-1656
▁He	-1657
▁Namen	-1658
als	-1659
▁besch	-1660
▁If	-1661
rach	-1662
org	-1663
▁Proble	-1664
schr	-1665
▁sicher	-1666
▁gut	-1667
▁Mad	-1668
▁seine	-1669
▁sign	-1670
ren	-1671
ichts	-1672
unden	-1673
▁ur	-1674
▁Teil	-1675
lungs	-1676
▁proced	-1677
▁Arbeits	-1678
tra	-1679
ktur	-1680
▁without	-1681
▁gel	-1682
▁establish	-1683
erk	-1684
ämp	-1685
ilfe	-1686
ppen	-1687
▁given	-1688
spro	-1689
▁differ	-1690
▁But	-1691
▁compet	-1692
orities	-1693
▁long	-1694
politik	-1695
▁wish	-1696
▁All	-1697
ential	-1698
▁Haushalts	-1699
falls	-1700
▁however	-1701
▁place	-1702
▁aid	-1703
▁House	-1704
nisse	-1705
▁Ger	-1706
▁form	-1707
isions	-1708
▁Möglichkeit	-1709
ability	-1710
▁einmal	-1711
▁Ko	-1712
▁particularly	-1713
abei	-1714
▁entsp	-1715
▁Regierung	-1716
werb	-1717
▁öff	-1718
▁Unterstütz	-1719
half	-1720
▁betr	-1721
elf	-1722
▁zwei	-1723
▁etwas	-1724
▁follow	-1725
▁necessary	-1726
▁Zusammenhang	-1727
idency	-1728
▁require	-1729
utung	-1730
▁behalf	-1731
offe	-1732
▁Gebie	-1733
ho	-1734
grund	-1735
immen	-1736
▁proposals	-1737
ately	-1738
ölk	-1739
▁wirtschaft	-1740
äuß	-1741
▁neue	-1742
▁worden	-1743
▁Gen	-1744
▁gef	-1745
▁find	-1746
spolitik	-1747
▁Unterstützung	-1748
▁No	-1749
▁ke	-1750
deut	-1751
ialog	-1752
entral	-1753
▁express	-1754
gress	-1755
▁Was	-1756
▁Stand	-1757
▁Unternehmen	-1758
gleich	-1759
▁besteht	-1760
ys	-1761
▁decision	-1762
ules	-1763
▁whether	-1764
urity	-1765
▁Meinung	-1766
▁areas	-1767
▁bek	-1768
▁Madam	-1769
▁Intern	-1770
▁gent	-1771
▁darüber	-1772
▁geb	-1773
ks	-1774
etzen	-1775
▁meet	-1776
▁allow	-1777
▁av	-1778
adies	-1779
neh	-1780
führung	-1781
ence	-1782
luss	-1783
eld	-1784
ph	-1785
ivil	-1786
itor	-1787
flicht	-1788
▁zwar	-1789
ende	-1790
▁gentlemen	-1791
▁trans	-1792
anken	-1793
ying	-1794
▁represent	-1795
iften	-1796
▁second	-1797
lobal	-1798
▁opinion	-1799
▁Situation	-1800
cing	-1801
▁Deshalb	-1802
▁Treat	-1803
▁natürlich	-1804
▁glau	-1805
führt	-1806
fit	-1807
stan	-1808
läge	-1809
lex	-1810
▁politischen	-1811
ga	-1812
strument	-1813
abil	-1814
ning	-1815
ginnen	-1816
▁Ne	-1817
▁cr	-1818
▁dra	-1819
▁bed	-1820
▁Präsidentin	-1821
ward	-1822
▁On	-1823
▁since	-1824
▁further	-1825
▁Members	-1826
come	-1827
ird	-1828
▁high	-1829
▁eing	-1830
▁call	-1831
▁notwend	-1832
undheit	-1833
▁opport	-1834
agt	-1835
ettbe	-1836
▁näm	-1837
▁nämlich	-1838
▁Fre	-1839
▁kommen	-1840
▁redu	-1841
▁seit	-1842
▁Is	-1843
vour	-1844
▁difficult	-1845
▁sm	-1846
mework	-1847
▁accept	-1848
ible	-1849
▁aff	-1850
▁cl	-1851
▁Ind	-1852
▁deal	-1853
▁Besch	-1854
▁geben	-1855
▁zurück	-1856
▁different	-1857
▁terms	-1858
ock	-1859
ettbewerb	-1860
ktor	-1861
stellung	-1862
▁Ländern	-1863
▁help	-1864
▁7	-1865
▁contro	-1866
lick	-1867
innen	-1868
entlichen	-1869
gest	-1870
ierungs	-1871
zess	-1872
▁erforder	-1873
stru	-1874
▁programme	-1875
ality	-1876
▁Verbrauch	-1877
▁prom	-1878
sibility	-1879
illion	-1880
▁Group	-1881
zü	-1882
folg	-1883
▁Debat	-1884
▁Bes	-1885
▁basis	-1886
ärk	-1887
▁At	-1888
▁Bede	-1889
▁deut	-1890
par	-1891
▁Änderungsantrag	-1892
▁United	-1893
▁commit	-1894
llschaft	-1895
mäß	-1896
▁terror	-1897
▁Probleme	-1898
▁voll	-1899
▁9	-1900
annt	-1901
agement	-1902
▁Thema	-1903
▁ihren	-1904
▁access	-1905
▁Bedeutung	-1906
▁Tran	-1907
▁strateg	-1908
zept	-1909
gre	-1910
ierten	-1911
▁Amend	-1912
▁concerned	-1913
racht	-1914
▁serious	-1915
▁Bei	-1916
stand	-1917
▁legislation	-1918
▁supp	-1919
urs	-1920
▁größ	-1921
une	-1922
▁pract	-1923
▁komm	-1924
weisen	-1925
ache	-1926
▁bestimm	-1927
▁min	-1928
fet	-1929
▁imm	-1930
ught	-1931
▁consum	-1932
amil	-1933
airs	-1934
sequ	-1935
lichkeit	-1936
ünft	-1937
gemein	-1938
oti	-1939
amental	-1940
▁ja	-1941
ifft	-1942
han	-1943
▁eben	-1944
▁zweit	-1945
▁wirklich	-1946
▁result	-1947
▁simp	-1948
▁health	-1949
▁Abgeordneten	-1950
liegen	-1951
wirtschaft	-1952
▁dür	-1953
other	-1954
bene	-1955
over	-1956
fety	-1957
ächst	-1958
▁8	-1959
▁klar	-1960
▁betrifft	-1961
▁2001	-1962
ganisation	-1963
▁Schutz	-1964
▁Staaten	-1965
ünd	-1966
▁protection	-1967
▁Auß	-1968
rieden	-1969
ücksicht	-1970
▁pri	-1971
markt	-1972
▁.	-1973
▁contrib	-1974
tain	-1975
▁wes	-1976
▁besonder	-1977
ante	-1978
hall	-1979
▁progress	-1980
▁crit	-1981
inder	-1982
zieh	-1983
▁Zukunft	-1984
▁speak	-1985
▁Fisch	-1986
▁next	-1987
▁look	-1988
wert	-1989
▁viele	-1990
▁whole	-1991
▁negoti	-1992
▁bess	-1993
▁defin	-1994
leicht	-1995
▁Am	-1996
ood	-1997
▁extre	-1998
▁subject	-1999
▁cre	-2000
▁seiner	-2001
wards	-2002
▁done	-2003
▁Entschließ	-2004
▁equ	-2005
▁women	-2006
▁Disk	-2007
▁pow	-2008
reffen	-2009
▁few	-2010
gaben	-2011
ßer	-2012
▁stehen	-2013
▁principle	-2014
lungen	-2015
▁State	-2016
wirk	-2017
▁Stra	-2018
▁role	-2019
ale	-2020
von	-2021
▁shall	-2022
▁richt	-2023
▁adopted	-2024
▁commun	-2025
▁lang	-2026
ove	-2027
ided	-2028
▁Artik	-2029
▁come	-2030
wier	-2031
▁ander	-2032
▁resolution	-2033
vious	-2034
▁inde	-2035
▁ladies	-2036
ichte	-2037
▁product	-2038
ased	-2039
▁Fort	-2040
▁außer	-2041
▁transport	-2042
▁back	-2043
▁soc	-2044
▁compan	-2045
eding	-2046
▁instit	-2047
▁framework	-2048
▁cond	-2049
▁del	-2050
▁anges	-2051
▁What	-2052
▁invest	-2053
itt	-2054
▁begrü	-2055
▁mention	-2056
war	-2057
/2000	-2058
▁unterstützen	-2059
TO	-2060
▁Kontro	-2061
rache	-2062
▁Aber	-2063
▁bro	-2064
▁val	-2065
glichen	-2066
▁Frauen	-2067
ahre	-2068
▁sens	-2069
fte	-2070
atives	-2071
▁favour	-2072
upt	-2073
uge	-2074
▁19	-2075
▁ir	-2076
ler	-2077
▁Li	-2078
ziel	-2079
▁integr	-2080
▁safety	-2081
▁Debatte	-2082
▁specific	-2083
▁1999	-2084
▁Information	-2085
hip	-2086
iele	-2087
ried	-2088
treten	-2089
▁gegenüber	-2090
orgen	-2091
▁darf	-2092
ferenz	-2093
▁Ange	-2094
▁after	-2095
▁working	-2096
▁ze	-2097
▁fol	-2098
gew	-2099
▁parl	-2100
zw	-2101
zip	-2102
ander	-2103
stimmung	-2104
ährend	-2105
▁organis	-2106
▁eigen	-2107
▁proposed	-2108
ife	-2109
▁11	-2110
▁plan	-2111
▁Treaty	-2112
▁quite	-2113
▁sector	-2114
spräsident	-2115
▁US	-2116
▁20	-2117
▁regional	-2118
ep	-2119
ervor	-2120
▁abs	-2121
uktur	-2122
lei	-2123
▁change	-2124
▁Pr	-2125
▁security	-2126
▁institutions	-2127
ilt	-2128
rän	-2129
wendung	-2130
schied	-2131
▁Vol	-2132
ified	-2133
▁Seit	-2134
▁konk	-2135
▁rules	-2136
edom	-2137
▁risk	-2138
▁letzten	-2139
▁person	-2140
ists	-2141
▁hät	-2142
druck	-2143
▁going	-2144
ething	-2145
ilit	-2146
▁Lös	-2147
▁glaube	-2148
▁Wettbewerb	-2149
rodu	-2150
gl	-2151
ude	-2152
▁ho	-2153
▁Tur	-2154
▁Ergeb	-2155
▁three	-2156
▁approach	-2157
▁Weise	-2158
urz	-2159
▁Ausschusses	-2160
▁underst	-2161
▁ide	-2162
pecial	-2163
▁pl	-2164
etzung	-2165
▁finanz	-2166
▁socie	-2167
▁äuß	-2168
▁drei	-2169
▁Artikel	-2170
▁effort	-2171
▁Verantwort	-2172
▁agree	-2173
prochen	-2174
ystems	-2175
ienst	-2176
▁something	-2177
▁Mill	-2178
▁hervor	-2179
ents	-2180
▁environmental	-2181
unächst	-2182
rech	-2183
▁open	-2184
▁Punkt	-2185
▁down	-2186
▁daher	-2187
overnment	-2188
▁zusammen	-2189
▁Ansicht	-2190
▁Lage	-2191
verkehr	-2192
▁colle	-2193
▁Rolle	-2194
wär	-2195
fach	-2196
▁davon	-2197
▁government	-2198
▁Fe	-2199
osition	-2200
▁vorgesch	-2201
spr	-2202
hält	-2203
▁Kolleginnen	-2204
▁gesagt	-2205
ively	-2206
▁Vorschläge	-2207
ases	-2208
▁project	-2209
▁var	-2210
▁Vertrag	-2211
▁positive	-2212
ising	-2213
▁cost	-2214
dert	-2215
ually	-2216
▁stellen	-2217
▁Di	-2218
gelegt	-2219
▁adv	-2220
erien	-2221
▁nationalen	-2222
▁services	-2223
▁regulation	-2224
▁umf	-2225
▁verschieden	-2226
▁europäische	-2227
▁vo	-2228
ccess	-2229
dings	-2230
arante	-2231
▁forward	-2232
▁15	-2233
osten	-2234
▁erst	-2235
▁continue	-2236
▁control	-2237
kämp	-2238
ension	-2239
▁clearly	-2240
▁peace	-2241
icle	-2242
ound	-2243
tem	-2244
gement	-2245
legenheit	-2246
gar	-2247
▁committee	-2248
bere	-2249
▁Gleich	-2250
blick	-2251
▁used	-2252
▁Jahre	-2253
▁unseren	-2254
yl	-2255
▁bal	-2256
▁oper	-2257
▁Man	-2258
▁rather	-2259
ways	-2260
▁Person	-2261
elle	-2262
ratic	-2263
uft	-2264
▁general	-2265
▁extrem	-2266
▁daran	-2267
▁account	-2268
fort	-2269
▁Bel	-2270
mö	-2271
ierte	-2272
ropri	-2273
▁talk	-2274
▁guarante	-2275
▁Aff	-2276
▁Transp	-2277
▁global	-2278
▁bew	-2279
▁Durch	-2280
▁pay	-2281
▁better	-2282
▁Verbraucher	-2283
ath	-2284
▁offen	-2285
gricult	-2286
000	-2287
▁especial	-2288
di	-2289
▁EUR	-2290
▁inform	-2291
▁especially	-2292
▁towards	-2293
att	-2294
andid	-2295
▁dabei	-2296
▁deren	-2297
▁brauch	-2298
▁Br	-2299
gether	-2300
▁Fol	-2301
▁Sozial	-2302
fra	-2303
verständ	-2304
▁step	-2305
▁Affairs	-2306
▁-,	-2307
▁Und	-2308
▁stren	-2309
▁dr	-2310
oint	-2311
▁Beschäft	-2312
▁resour	-2313
▁gesam	-2314
▁Demokrat	-2315
ines	-2316
▁large	-2317
▁vorgeschlagen	-2318
ared	-2319
ativen	-2320
▁UN	-2321
▁member	-2322
häng	-2323
▁read	-2324
▁priv	-2325
▁führen	-2326
unde	-2327
▁hoffe	-2328
▁Fran	-2329
▁bestehen	-2330
▁Red	-2331
▁recht	-2332
iation	-2333
▁gewähr	-2334
umen	-2335
▁Ex	-2336
▁rev	-2337
ika	-2338
▁Ums	-2339
▁med	-2340
▁könnte	-2341
genda	-2342
▁Lebens	-2343
▁reform	-2344
▁Not	-2345
▁lim	-2346
iving	-2347
wärt	-2348
iesen	-2349
▁regul	-2350
igkeiten	-2351
▁industry	-2352
miss	-2353
▁itself	-2354
▁Energ	-2355
ek	-2356
▁lassen	-2357
ogen	-2358
▁event	-2359
▁La	-2360
▁cap	-2361
gesehen	-2362
recht	-2363
ildung	-2364
▁gehör	-2365
▁Terror	-2366
▁zust	-2367
ders	-2368
itäten	-2369
▁Ihre	-2370
▁darin	-2371
▁govern	-2372
▁Rechte	-2373
inzip	-2374
ffic	-2375
▁fundamental	-2376
SE	-2377
▁Forsch	-2378
ont	-2379
▁Ihr	-2380
ivid	-2381
▁exist	-2382
merk	-2383
▁least	-2384
▁introdu	-2385
ged	-2386
raum	-2387
▁small	-2388
völk	-2389
▁dire	-2390
▁während	-2391
▁million	-2392
▁Produ	-2393
▁employment	-2394
▁did	-2395
ennt	-2396
▁society	-2397
▁cor	-2398
▁really	-2399
▁Menschenrechte	-2400
▁third	-2401
▁liegt	-2402
▁transpar	-2403
▁Institution	-2404
urn	-2405
▁understand	-2406
▁10	-2407
▁child	-2408
▁less	-2409
▁during	-2410
▁dep	-2411
kämpfung	-2412
▁sowohl	-2413
▁another	-2414
ortug	-2415
pflicht	-2416
▁importance	-2417
iar	-2418
▁einge	-2419
▁deshalb	-2420
▁einzel	-2421
komm	-2422
▁tax	-2423
gabe	-2424
emp	-2425
armon	-2426
ters	-2427
sichtlich	-2428
▁ess	-2429
▁derzeit	-2430
▁conditions	-2431
▁feel	-2432
▁appropri	-2433
term	-2434
oney	-2435
▁große	-2436
▁Dar	-2437
▁bene	-2438
▁state	-2439
▁steht	-2440
▁Zust	-2441
▁Sol	-2442
▁dürfen	-2443
▁together	-2444
ield	-2445
▁addition	-2446
ustrie	-2447
schaften	-2448
▁Presidency	-2449
earch	-2450
▁gest	-2451
▁recog	-2452
▁welcome	-2453
▁Bem	-2454
▁aw	-2455
▁Auff	-2456
▁research	-2457
▁Weg	-2458
▁Erweit	-2459
▁greater	-2460
▁Verordnung	-2461
sweise	-2462
▁Ebene	-2463
▁success	-2464
▁waren	-2465
▁aim	-2466
though	-2467
▁resources	-2468
▁bringen	-2469
▁Beispiel	-2470
▁These	-2471
▁enlar	-2472
ktionen	-2473
▁bef	-2474
▁comple	-2475
▁opportunity	-2476
▁points	-2477
ises	-2478
▁once	-2479
▁Pl	-2480
mitt	-2481
▁Auch	-2482
▁essential	-2483
▁Verhand	-2484
▁needs	-2485
▁welche	-2486
▁politische	-2487
▁vi	-2488
▁They	-2489
▁provide	-2490
▁air	-2491
oment	-2492
▁Markt	-2493
▁responsibility	-2494
▁sollen	-2495
▁det	-2496
unehmen	-2497
▁einigen	-2498
ierungen	-2499
▁ü	-2500
ling	-2501
oten	-2502
▁freedom	-2503
▁ersten	-2504
▁aspect	-2505
inistr	-2506
▁aufge	-2507
▁Mehr	-2508
▁Europas	-2509
CO	-2510
▁el	-2511
▁lead	-2512
▁regions	-2513
gestellt	-2514
▁ev	-2515
ifen	-2516
▁Rep	-2517
mes	-2518
chten	-2519
▁Jahres	-2520
▁And	-2521
sprache	-2522
▁Umsetzung	-2523
▁Gesetz	-2524
eits	-2525
▁authorities	-2526
▁current	-2527
▁making	-2528
ency	-2529
▁each	-2530
▁rece	-2531
▁Tages	-2532
▁procedure	-2533
▁Bar	-2534
▁deutlich	-2535
▁Hilfe	-2536
maß	-2537
▁Gegen	-2538
▁accord	-2539
▁parliament	-2540
iness	-2541
▁elect	-2542
▁bus	-2543
▁Verkehr	-2544
▁various	-2545
▁involved	-2546
▁gem	-2547
▁Asp	-2548
▁fight	-2549
▁doc	-2550
hil	-2551
▁remain	-2552
aum	-2553
reg	-2554
▁become	-2555
bei	-2556
▁Uns	-2557
▁Zahl	-2558
▁activ	-2559
▁ak	-2560
bau	-2561
ably	-2562
▁berücksicht	-2563
▁Pal	-2564
▁trade	-2565
▁occ	-2566
nehmer	-2567
▁je	-2568
fehl	-2569
tember	-2570
▁individ	-2571
racy	-2572
▁Amer	-2573
▁money	-2574
atten	-2575
▁beispiel	-2576
linien	-2577
▁start	-2578
▁Gesundheit	-2579
▁including	-2580
▁ans	-2581
▁document	-2582
enzen	-2583
▁gerade	-2584
stehen	-2585
setzung	-2586
▁achieve	-2587
▁Sep	-2588
▁Form	-2589
▁September	-2590
zahl	-2591
ktiv	-2592
▁adm	-2593
▁Erweiterung	-2594
utet	-2595
▁reach	-2596
▁Zug	-2597
▁sozialen	-2598
▁always	-2599
▁Just	-2600
llig	-2601
▁ihnen	-2602
▁demokrat	-2603
▁Parte	-2604
▁Emp	-2605
▁hinaus	-2606
▁companies	-2607
▁clos	-2608
▁communic	-2609
imes	-2610
▁extremely	-2611
icial	-2612
▁absol	-2613
▁handelt	-2614
fäh	-2615
weg	-2616
▁Med	-2617
/2001)	-2618
aps	-2619
fern	-2620
▁led	-2621
▁Abstimmung	-2622
▁cult	-2623
▁großen	-2624
▁refer	-2625
▁taking	-2626
ekte	-2627
▁month	-2628
chan	-2629
onds	-2630
▁milit	-2631
▁Ausdruck	-2632
▁kle	-2633
▁Fund	-2634
▁Article	-2635
▁Liberal	-2636
▁relations	-2637
text	-2638
▁increase	-2639
amt	-2640
rael	-2641
hö	-2642
asing	-2643
▁kurz	-2644
▁demand	-2645
▁competition	-2646
ikan	-2647
▁struct	-2648
ationen	-2649
▁Grün	-2650
▁entsprechen	-2651
sätz	-2652
▁lea	-2653
thing	-2654
▁concerns	-2655
▁Standpunkt	-2656
grat	-2657
▁decisions	-2658
schutz	-2659
▁12	-2660
▁energ	-2661
ator	-2662
▁beispielsweise	-2663
hörden	-2664
ry	-2665
esen	-2666
▁let	-2667
▁prevent	-2668
▁Erklär	-2669
▁To	-2670
▁Bevölk	-2671
▁Lösung	-2672
▁opp	-2673
hnt	-2674
▁words	-2675
▁besonders	-2676
esellschaft	-2677
zogen	-2678
sid	-2679
erence	-2680
▁short	-2681
ähl	-2682
▁gilt	-2683
▁statt	-2684
gratul	-2685
▁Hinblick	-2686
▁grow	-2687
ipf	-2688
▁seem	-2689
▁applic	-2690
▁beiden	-2691
▁Entscheidung	-2692
idar	-2693
▁Regel	-2694
▁Diskuss	-2695
▁nie	-2696
benso	-2697
gegen	-2698
▁Convention	-2699
▁policies	-2700
bereich	-2701
▁interests	-2702
▁yet	-2703
▁akzept	-2704
▁initiative	-2705
beding	-2706
▁werde	-2707
▁näch	-2708
ufen	-2709
▁non	-2710
▁prec	-2711
▁job	-2712
ification	-2713
▁congratul	-2714
unkte	-2715
▁beim	-2716
reicht	-2717
▁adopt	-2718
▁Fischere	-2719
▁Ratspräsident	-2720
riminal	-2721
▁Zwe	-2722
▁show	-2723
▁address	-2724
▁anim	-2725
▁Amendment	-2726
zen	-2727
▁inner	-2728
▁enlargement	-2729
erecht	-2730
▁000	-2731
▁sei	-2732
▁Eine	-2733
▁nichts	-2734
▁euro	-2735
▁Aussprache	-2736
▁nor	-2737
▁Verantwortung	-2738
▁play	-2739
schein	-2740
duc	-2741
iod	-2742
▁konkre	-2743
heb	-2744
▁Afr	-2745
▁Frei	-2746
▁Ital	-2747
illeg	-2748
unter	-2749
rück	-2750
▁major	-2751
▁gemeinsamen	-2752
▁Frieden	-2753
▁certainly	-2754
▁treat	-2755
▁erhalten	-2756
▁Gebiet	-2757
▁democratic	-2758
▁Fä	-2759
▁Mar	-2760
▁kommt	-2761
▁agricult	-2762
astr	-2763
erseits	-2764
▁amendment	-2765
utzen	-2766
▁heiß	-2767
▁danken	-2768
▁alles	-2769
▁Reform	-2770
▁ebenfalls	-2771
▁institution	-2772
yp	-2773
idence	-2774
▁implementation	-2775
ller	-2776
▁Aussch	-2777
▁Wer	-2778
▁Verbess	-2779
▁avail	-2780
isher	-2781
▁dort	-2782
▁internationalen	-2783
▁Verfahren	-2784
▁fall	-2785
▁viol	-2786
▁Erach	-2787
▁Erachtens	-2788
züglich	-2789
ausschuss	-2790
▁mov	-2791
zeitig	-2792
ppe	-2793
▁business	-2794
▁Entwicklungs	-2795
▁Regionen	-2796
zuf	-2797
verfahren	-2798
gang	-2799
▁Tür	-2800
▁gegeben	-2801
▁civil	-2802
▁aware	-2803
ummit	-2804
▁hö	-2805
immt	-2806
▁Wahl	-2807
ily	-2808
ness	-2809
▁happen	-2810
▁attention	-2811
alen	-2812
▁Kos	-2813
▁loc	-2814
▁illeg	-2815
▁conclus	-2816
net	-2817
▁First	-2818
scheiden	-2819
▁allgemein	-2820
leist	-2821
▁Vertre	-2822
ode	-2823
▁Wort	-2824
▁pers	-2825
▁Verwalt	-2826
▁Viel	-2827
▁solche	-2828
▁weitere	-2829
▁Institutionen	-2830
▁Demokratie	-2831
▁darum	-2832
▁administr	-2833
▁weiterhin	-2834
▁mean	-2835
▁teil	-2836
▁Tagesordnung	-2837
▁With	-2838
▁food	-2839
frage	-2840
▁programmes	-2841
istan	-2842
▁notwendig	-2843
ross	-2844
▁having	-2845
▁simply	-2846
▁bu	-2847
▁Ende	-2848
▁grund	-2849
▁angenommen	-2850
▁members	-2851
▁erreichen	-2852
▁benefit	-2853
▁hatte	-2854
▁begin	-2855
▁based	-2856
ica	-2857
▁objectives	-2858
▁finden	-2859
▁economy	-2860
▁technolog	-2861
spect	-2862
▁Struktur	-2863
▁ple	-2864
hing	-2865
▁wichtige	-2866
ining	-2867
▁restr	-2868
▁products	-2869
ify	-2870
▁period	-2871
▁vielleicht	-2872
ics	-2873
▁individual	-2874
irm	-2875
▁instrument	-2876
▁Wirtschafts	-2877
▁Swed	-2878
vement	-2879
▁table	-2880
▁vorliegen	-2881
bereit	-2882
▁Grundlage	-2883
▁statement	-2884
▁Geld	-2885
▁wohl	-2886
▁genau	-2887
▁Ir	-2888
▁gegenwärt	-2889
▁often	-2890
▁sprechen	-2891
▁Millionen	-2892
▁power	-2893
oting	-2894
▁Gemeinschafts	-2895
▁nehmen	-2896
▁questions	-2897
▁enc	-2898
▁ermö	-2899
▁stellt	-2900
▁exce	-2901
▁äußerst	-2902
▁brauchen	-2903
agen	-2904
ommend	-2905
estimmt	-2906
ented	-2907
▁press	-2908
▁creat	-2909
▁entwick	-2910
▁Nat	-2911
▁def	-2912
haps	-2913
▁kind	-2914
schriften	-2915
igr	-2916
ländern	-2917
▁innerhalb	-2918
▁Stellung	-2919
▁gemeinsame	-2920
fs	-2921
▁ben	-2922
eless	-2923
▁conflic	-2924
verständlich	-2925
▁things	-2926
▁Kosov	-2927
▁field	-2928
▁Auffassung	-2929
bour	-2930
▁upon	-2931
▁internal	-2932
▁negotiations	-2933
mals	-2934
▁men	-2935
▁text	-2936
▁schließ	-2937
▁hinsichtlich	-2938
▁Bezug	-2939
▁fully	-2940
▁versuch	-2941
iellen	-2942
com	-2943
▁democracy	-2944
füg	-2945
ides	-2946
▁sur	-2947
▁dessen	-2948
enten	-2949
▁weniger	-2950
▁halte	-2951
▁effective	-2952
onger	-2953
wach	-2954
▁liberal	-2955
▁mod	-2956
▁request	-2957
▁Kl	-2958
setzen	-2959
gern	-2960
▁Sub	-2961
▁Rights	-2962
▁colleag	-2963
tellen	-2964
▁Proj	-2965
▁Ziele	-2966
▁majority	-2967
ffice	-2968
▁besser	-2969
weis	-2970
ustain	-2971
▁verst	-2972
haltung	-2973
▁complete	-2974
▁2002	-2975
ule	-2976
▁ern	-2977
altung	-2978
▁tot	-2979
▁Woch	-2980
▁Interess	-2981
▁ant	-2982
ategie	-2983
▁management	-2984
▁available	-2985
iges	-2986
twort	-2987
▁meines	-2988
▁coordin	-2989
▁verbess	-2990
entliche	-2991
▁exc	-2992
ean	-2993
▁14	-2994
▁hig	-2995
alled	-2996
▁Vereinigten	-2997
▁Wor	-2998
▁Antwort	-2999
▁gar	-3000
▁groups	-3001
▁Rück	-3002
▁Pre	-3003
▁keinen	-3004
▁würden	-3005
▁Hier	-3006
▁Verpflicht	-3007
gesetzt	-3008
leis	-3009
▁zahl	-3010
▁mot	-3011
▁obl	-3012
▁Binnen	-3013
▁behand	-3014
gelung	-3015
▁Krit	-3016
▁particip	-3017
▁recommend	-3018
urg	-3019
▁USA	-3020
▁inn	-3021
▁Mitte	-3022
▁wenig	-3023
so	-3024
▁ear	-3025
itäts	-3026
ix	-3027
▁Bekämpfung	-3028
ären	-3029
gangenen	-3030
▁moment	-3031
▁gemacht	-3032
▁hist	-3033
ifiz	-3034
▁ann	-3035
▁Gemeinsam	-3036
▁objective	-3037
▁responsible	-3038
▁draft	-3039
▁parties	-3040
▁künft	-3041
letz	-3042
▁sing	-3043
▁following	-3044
▁tas	-3045
▁sure	-3046
berein	-3047
wirkungen	-3048
▁verschiedenen	-3049
▁mind	-3050
isches	-3051
▁quality	-3052
▁increasing	-3053
ziehen	-3054
▁schne	-3055
use	-3056
▁educ	-3057
ialogue	-3058
▁apply	-3059
▁öffentlichen	-3060
▁begrüß	-3061
▁seinen	-3062
▁pass	-3063
▁energy	-3064
kei	-3065
▁bel	-3066
▁voted	-3067
▁mentioned	-3068
fg	-3069
▁free	-3070
▁My	-3071
▁hon	-3072
▁Vors	-3073
▁erwä	-3074
▁Außen	-3075
▁Tag	-3076
▁cases	-3077
fordert	-3078
▁Gew	-3079
round	-3080
fragen	-3081
▁farm	-3082
▁vorgesehen	-3083
▁force	-3084
vorschriften	-3085
mut	-3086
▁bor	-3087
▁Kosovo	-3088
▁matters	-3089
vest	-3090
rechts	-3091
▁heißt	-3092
▁disk	-3093
▁schaffen	-3094
▁erforderlich	-3095
▁Anwendung	-3096
ined	-3097
▁pop	-3098
indest	-3099
▁Herren	-3100
/0	-3101
▁Organisation	-3102
▁gehen	-3103
atsäch	-3104
▁terrorism	-3105
dam	-3106
annten	-3107
▁Zugang	-3108
lüs	-3109
▁monitor	-3110
▁WTO	-3111
▁fun	-3112
länder	-3113
▁meinen	-3114
prü	-3115
lev	-3116
▁jud	-3117
▁Israel	-3118
einander	-3119
▁Beding	-3120
▁children	-3121
▁allerdings	-3122
▁13	-3123
▁Kinder	-3124
▁others	-3125
▁might	-3126
old	-3127
▁System	-3128
▁Initiative	-3129
▁Informationen	-3130
▁hätte	-3131
▁special	-3132
ziehungen	-3133
▁erreicht	-3134
▁care	-3135
fghan	-3136
▁weiß	-3137
kten	-3138
▁einfach	-3139
▁vö	-3140
▁strengt	-3141
▁although	-3142
▁strategy	-3143
akt	-3144
▁bo	-3145
▁vielen	-3146
▁erinn	-3147
▁Portug	-3148
▁single	-3149
▁eindeut	-3150
▁schwier	-3151
drück	-3152
ethod	-3153
▁eig	-3154
▁life	-3155
its	-3156
less	-3157
▁meeting	-3158
eder	-3159
▁Lis	-3160
ived	-3161
▁lack	-3162
per	-3163
▁create	-3164
▁actually	-3165
▁Kontrolle	-3166
▁Für	-3167
▁indem	-3168
▁efforts	-3169
▁Gipf	-3170
ners	-3171
▁opt	-3172
▁sogar	-3173
▁stärk	-3174
jen	-3175
▁übr	-3176
ichtet	-3177
gent	-3178
richtung	-3179
▁Berichts	-3180
▁appropriate	-3181
▁sustain	-3182
key	-3183
ritts	-3184
▁Chin	-3185
stances	-3186
▁sehen	-3187
▁Entschließung	-3188
ichen	-3189
abhäng	-3190
▁ihrem	-3191
▁assess	-3192
▁Beitrag	-3193
iver	-3194
▁Rei	-3195
finden	-3196
▁Internet	-3197
merksam	-3198
▁ihm	-3199
▁konn	-3200
▁mult	-3201
ference	-3202
▁Interesse	-3203
chnolog	-3204
▁Energie	-3205
▁eigenen	-3206
▁signific	-3207
▁Sitz	-3208
▁Pri	-3209
▁denke	-3210
▁mo	-3211
schließend	-3212
elves	-3213
▁Komp	-3214
▁Terrorismus	-3215
fang	-3216
orge	-3217
folgen	-3218
umente	-3219
▁ago	-3220
▁Turkey	-3221
▁months	-3222
▁famil	-3223
▁Dialog	-3224
▁demon	-3225
▁while	-3226
▁Bevölkerung	-3227
has	-3228
▁recent	-3229
leit	-3230
▁erste	-3231
▁region	-3232
▁jeder	-3233
▁För	-3234
▁thems	-3235
▁themselves	-3236
▁Span	-3237
▁concerning	-3238
▁bzw	-3239
urteil	-3240
teid	-3241
▁fish	-3242
affung	-3243
▁reports	-3244
igin	-3245
stens	-3246
▁Char	-3247
ritten	-3248
▁dialogue	-3249
▁contain	-3250
▁entscheiden	-3251
▁halten	-3252
▁Finally	-3253
▁guarantee	-3254
ination	-3255
▁30	-3256
osed	-3257
▁tatsäch	-3258
ubt	-3259
voll	-3260
▁erziel	-3261
▁method	-3262
▁never	-3263
▁Türkei	-3264
dition	-3265
▁Daher	-3266
▁improve	-3267
▁Binnenmarkt	-3268
▁draw	-3269
row	-3270
▁einzelnen	-3271
üh	-3272
stant	-3273
▁Part	-3274
zustellen	-3275
wh	-3276
▁Dienst	-3277
▁Auswirkungen	-3278
▁Präsidentschaft	-3279
▁agenda	-3280
▁Behörden	-3281
▁harmon	-3282
▁jeden	-3283
▁Notwend	-3284
ott	-3285
▁Dok	-3286
▁funds	-3287
▁context	-3288
ourt	-3289
▁beit	-3290
▁disp	-3291
▁resul	-3292
▁nächsten	-3293
fortun	-3294
▁Gesellschaft	-3295
rotz	-3296
▁Wieder	-3297
▁agreements	-3298
lexib	-3299
▁sug	-3300
▁Kosten	-3301
▁workers	-3302
äd	-3303
▁ebenso	-3304
▁proper	-3305
ize	-3306
alle	-3307
▁protect	-3308
▁day	-3309
asser	-3310
▁Region	-3311
▁ret	-3312
legation	-3313
▁she	-3314
▁strong	-3315
▁Schaffung	-3316
▁Interessen	-3317
▁Verbesserung	-3318
hend	-3319
▁final	-3320
isik	-3321
ultur	-3322
▁longer	-3323
▁Bedingungen	-3324
▁Fest	-3325
▁dist	-3326
ected	-3327
▁Ur	-3328
itive	-3329
▁1998	-3330
▁vers	-3331
mehr	-3332
jenigen	-3333
▁systems	-3334
roffen	-3335
▁arbeit	-3336
▁bisher	-3337
..	-3338
▁eth	-3339
▁erne	-3340
▁Government	-3341
spruch	-3342
▁EC	-3343
burg	-3344
▁net	-3345
▁Aufgabe	-3346
prä	-3347
deutet	-3348
▁Prodi	-3349
av	-3350
▁Invest	-3351
yn	-3352
ake	-3353
▁Reihe	-3354
▁klein	-3355
▁Konfl	-3356
▁Kons	-3357
▁Verhandlungen	-3358
bt	-3359
cen	-3360
▁eng	-3361
▁obs	-3362
▁zus	-3363
▁line	-3364
▁encour	-3365
▁reasons	-3366
▁him	-3367
▁zunächst	-3368
ünf	-3369
▁Second	-3370
▁unterstützt	-3371
▁Best	-3372
▁Bestimm	-3373
▁Abkommen	-3374
trägen	-3375
▁joint	-3376
▁currently	-3377
▁Kr	-3378
▁po	-3379
▁Aut	-3380
▁Prior	-3381
▁Zweit	-3382
▁Stabil	-3383
igration	-3384
▁doing	-3385
reiben	-3386
▁indeed	-3387
eign	-3388
▁aufgrund	-3389
uc	-3390
ugen	-3391
▁vis	-3392
worten	-3393
plan	-3394
▁prep	-3395
▁Kamp	-3396
▁Damen	-3397
▁communication	-3398
ahn	-3399
▁wahr	-3400
▁initi	-3401
öt	-3402
▁local	-3403
ünschen	-3404
▁Staats	-3405
▁principles	-3406
▁Court	-3407
▁humanit	-3408
▁Arbeitsp	-3409
▁among	-3410
▁Social	-3411
▁mor	-3412
▁diskut	-3413
▁wichtigen	-3414
anger	-3415
griff	-3416
▁Voraus	-3417
ätigkeit	-3418
ogra	-3419
▁enter	-3420
fonds	-3421
utes	-3422
ringen	-3423
▁völlig	-3424
▁standards	-3425
▁governments	-3426
aper	-3427
▁Afghan	-3428
▁versch	-3429
5-01	-3430
gramm	-3431
ilung	-3432
frist	-3433
▁congratulate	-3434
▁Belg	-3435
▁Währ	-3436
▁meinem	-3437
▁origin	-3438
zunehmen	-3439
za	-3440
ody	-3441
▁caus	-3442
▁Dieser	-3443
maßnahmen	-3444
lied	-3445
▁found	-3446
greifen	-3447
ond	-3448
▁past	-3449
▁stud	-3450
lassen	-3451
▁Notwendigkeit	-3452
▁fair	-3453
▁aspects	-3454
▁partners	-3455
▁Arbeitnehmer	-3456
inge	-3457
▁Prot	-3458
legenheiten	-3459
app	-3460
))	-3461
ians	-3462
▁unterschied	-3463
▁Do	-3464
llent	-3465
ativ	-3466
▁Erklärung	-3467
isis	-3468
▁perhaps	-3469
atis	-3470
iglich	-3471
▁emphas	-3472
▁solution	-3473
▁Tats	-3474
igungs	-3475
mb	-3476
▁intend	-3477
hes	-3478
▁gehört	-3479
▁organisations	-3480
outh	-3481
wur	-3482
ände	-3483
▁Nor	-3484
▁candid	-3485
▁Beschäftigung	-3486
staat	-3487
ternal	-3488
▁wan	-3489
gency	-3490
▁ident	-3491
▁share	-3492
▁schwer	-3493
▁Kön	-3494
▁bedeutet	-3495
iffen	-3496
schritte	-3497
▁erklär	-3498
orted	-3499
frastr	-3500
▁indic	-3501
iere	-3502
imum	-3503
▁dan	-3504
ittle	-3505
▁pur	-3506
▁Personen	-3507
▁discussion	-3508
baren	-3509
▁Dank	-3510
▁foc	-3511
▁terr	-3512
▁Diskussion	-3513
▁Dam	-3514
Office	-3515
ceed	-3516
▁gute	-3517
▁Gesch	-3518
▁water	-3519
▁Text	-3520
▁Forschung	-3521
▁ME	-3522
▁maintain	-3523
▁lediglich	-3524
▁answer	-3525
luß	-3526
atory	-3527
▁crisis	-3528
fficient	-3529
▁bekannt	-3530
▁gestellt	-3531
aged	-3532
ban	-3533
▁BSE	-3534
▁sever	-3535
▁assist	-3536
▁absolute	-3537
▁enthalten	-3538
▁due	-3539
riften	-3540
▁little	-3541
eh	-3542
▁sag	-3543
▁consequ	-3544
▁experien	-3545
▁education	-3546
cies	-3547
▁könnten	-3548
▁excellent	-3549
arbeiten	-3550
▁Selbst	-3551
▁legislative	-3552
▁Let	-3553
▁bre	-3554
▁effic	-3555
ichten	-3556
▁Kommissarin	-3557
asst	-3558
▁qual	-3559
▁verw	-3560
▁contra	-3561
▁fisher	-3562
enste	-3563
▁Programm	-3564
ennung	-3565
▁erwar	-3566
standen	-3567
▁Schritt	-3568
▁developing	-3569
ches	-3570
haft	-3571
▁enough	-3572
▁Op	-3573
leistet	-3574
▁Wettbewerbs	-3575
▁Vorschriften	-3576
onen	-3577
▁cover	-3578
stum	-3579
▁projects	-3580
temp	-3581
ators	-3582
▁stress	-3583
▁Einw	-3584
▁unserem	-3585
til	-3586
▁nam	-3587
▁anal	-3588
vorsch	-3589
▁gener	-3590
▁Geschäft	-3591
gän	-3592
▁Pe	-3593
▁fran	-3594
▁achieved	-3595
anu	-3596
▁results	-3597
▁relation	-3598
oung	-3599
▁Luft	-3600
▁comes	-3601
▁lab	-3602
▁Transpar	-3603
▁strengthen	-3604
▁costs	-3605
▁Empfehl	-3606
▁Wo	-3607
▁subsid	-3608
▁previous	-3609
hens	-3610
▁ihn	-3611
▁Vertra	-3612
▁Fortschritte	-3613
ikt	-3614
▁Leben	-3615
▁Mehrheit	-3616
▁keep	-3617
▁nothing	-3618
▁key	-3619
▁Volks	-3620
▁bedeut	-3621
▁Tod	-3622
▁technical	-3623
▁Programme	-3624
▁activities	-3625
ims	-3626
rench	-3627
irc	-3628
self	-3629
istischen	-3630
▁cru	-3631
▁soon	-3632
ledge	-3633
▁production	-3634
▁Gre	-3635
▁mar	-3636
ican	-3637
▁recogn	-3638
▁Secondly	-3639
cr	-3640
pl	-3641
orth	-3642
▁idea	-3643
ons	-3644
angen	-3645
itim	-3646
▁zie	-3647
▁Industrie	-3648
▁angesichts	-3649
atterin	-3650
bildung	-3651
▁Ho	-3652
imme	-3653
▁Dec	-3654
▁commitment	-3655
▁purp	-3656
▁Beziehungen	-3657
▁Regierungen	-3658
▁circ	-3659
pend	-3660
ully	-3661
▁soziale	-3662
▁War	-3663
hilfe	-3664
ctions	-3665
utzung	-3666
▁network	-3667
▁comprom	-3668
▁Conference	-3669
▁French	-3670
▁umfassen	-3671
▁oblig	-3672
▁Transparenz	-3673
▁Mal	-3674
▁tabled	-3675
▁Risik	-3676
lies	-3677
▁post	-3678
▁focus	-3679
▁Vorsitz	-3680
▁Als	-3681
▁cent	-3682
▁young	-3683
▁gesamten	-3684
▁honour	-3685
most	-3686
▁gelten	-3687
▁service	-3688
ingen	-3689
ateral	-3690
▁Verfüg	-3691
199	-3692
äst	-3693
ellen	-3694
inne	-3695
fortunately	-3696
fully	-3697
▁Bank	-3698
▁true	-3699
▁makes	-3700
▁growth	-3701
▁Sicherheits	-3702
▁expect	-3703
▁Förderung	-3704
allen	-3705
▁Doch	-3706
▁vict	-3707
entlichkeit	-3708
▁vergangenen	-3709
äs	-3710
▁för	-3711
▁Ergebnis	-3712
▁significant	-3713
▁Regierungs	-3714
▁sett	-3715
▁states	-3716
hnen	-3717
▁include	-3718
▁Fr	-3719
▁entire	-3720
iled	-3721
▁road	-3722
▁thing	-3723
▁seen	-3724
gliche	-3725
▁continu	-3726
▁though	-3727
▁Nr	-3728
▁priority	-3729
ieten	-3730
▁Sicht	-3731
▁Gelegenheit	-3732
▁Landwirtschaft	-3733
▁wobei	-3734
▁International	-3735
▁25	-3736
▁Mitteilung	-3737
▁Gree	-3738
▁Janu	-3739
▁Party	-3740
▁50	-3741
▁char	-3742
enken	-3743
▁Leg	-3744
▁term	-3745
ffentlichkeit	-3746
hilfen	-3747
▁gefähr	-3748
fre	-3749
▁several	-3750
▁procedures	-3751
▁ph	-3752
▁führ	-3753
▁richtig	-3754
cken	-3755
▁eas	-3756
aking	-3757
/2000)	-3758
▁seinem	-3759
▁Bereichen	-3760
▁provisions	-3761
ückw	-3762
▁Per	-3763
▁item	-3764
▁folgen	-3765
▁carried	-3766
aterial	-3767
▁regarding	-3768
line	-3769
▁link	-3770
selves	-3771
▁fail	-3772
▁Prozess	-3773
▁conne	-3774
▁transparency	-3775
oss	-3776
atic	-3777
zentr	-3778
▁unseres	-3779
cher	-3780
ograph	-3781
▁Nicht	-3782
ilateral	-3783
▁schnell	-3784
▁ernst	-3785
sterdam	-3786
▁Position	-3787
▁Angelegenheiten	-3788
pite	-3789
ivers	-3790
▁seek	-3791
▁consumers	-3792
▁grundlegen	-3793
ennen	-3794
▁Geschäfts	-3795
zös	-3796
lt	-3797
more	-3798
ücht	-3799
under	-3800
▁Koordin	-3801
▁wirksam	-3802
peten	-3803
▁Aktion	-3804
▁Einführung	-3805
Fra	-3806
orm	-3807
por	-3808
▁Tra	-3809
▁Strategie	-3810
▁agricultural	-3811
ommun	-3812
kommens	-3813
▁Kultur	-3814
ctive	-3815
▁four	-3816
▁needed	-3817
▁comb	-3818
▁Seite	-3819
▁Entscheidungen	-3820
▁conflict	-3821
wür	-3822
▁rest	-3823
DE	-3824
legung	-3825
▁unver	-3826
▁Amsterdam	-3827
▁Richtung	-3828
▁beg	-3829
arf	-3830
tent	-3831
▁Möglichkeiten	-3832
▁asked	-3833
▁dring	-3834
atast	-3835
lands	-3836
atastrop	-3837
konferenz	-3838
▁Tatsache	-3839
itten	-3840
▁stage	-3841
atisf	-3842
eken	-3843
side	-3844
folgt	-3845
ielle	-3846
▁Flug	-3847
gru	-3848
▁seems	-3849
▁safe	-3850
▁quick	-3851
minister	-3852
▁genommen	-3853
▁Beitritts	-3854
▁Russ	-3855
▁befür	-3856
▁Zweitens	-3857
▁presented	-3858
▁verhin	-3859
▁challen	-3860
stell	-3861
▁fünf	-3862
▁beteil	-3863
▁crime	-3864
▁until	-3865
enntnis	-3866
mitteln	-3867
▁Zeitpunkt	-3868
▁Our	-3869
▁amb	-3870
▁Laeken	-3871
▁gra	-3872
ested	-3873
▁turn	-3874
▁agreed	-3875
▁oft	-3876
▁rail	-3877
▁Direct	-3878
▁setzen	-3879
▁ourselves	-3880
organisation	-3881
5-00	-3882
▁Volk	-3883
▁consult	-3884
hof	-3885
▁Austr	-3886
▁Kampf	-3887
wurf	-3888
ding	-3889
▁frü	-3890
▁Denn	-3891
▁erfü	-3892
▁Absch	-3893
▁offer	-3894
zulegen	-3895
▁consumer	-3896
izza	-3897
langen	-3898
▁ground	-3899
▁Abgeordnete	-3900
▁Zus	-3901
▁practice	-3902
▁China	-3903
▁vorgelegt	-3904
ckt	-3905
▁private	-3906
▁Gru	-3907
▁spiel	-3908
▁vertreten	-3909
▁contribution	-3910
usst	-3911
▁fr	-3912
fert	-3913
▁poor	-3914
▁Rede	-3915
▁above	-3916
▁obvious	-3917
alu	-3918
rang	-3919
ither	-3920
▁Stat	-3921
▁undert	-3922
▁Kraft	-3923
▁provided	-3924
▁Groß	-3925
▁Gefahr	-3926
▁danger	-3927
▁eingehen	-3928
▁bestimmte	-3929
▁gleichzeitig	-3930
low	-3931
▁broad	-3932
▁lange	-3933
iding	-3934
co	-3935
part	-3936
▁Pra	-3937
▁Konvent	-3938
▁crucial	-3939
▁heraus	-3940
▁zweite	-3941
▁weiteren	-3942
▁Raum	-3943
▁Verfügung	-3944
▁Balk	-3945
▁Komprom	-3946
▁Fern	-3947
wegen	-3948
arbeitung	-3949
heben	-3950
▁appe	-3951
üd	-3952
aut	-3953
weil	-3954
hrte	-3955
▁etwa	-3956
leiben	-3957
mitted	-3958
bon	-3959
anges	-3960
alität	-3961
reiche	-3962
▁angem	-3963
▁nachhalt	-3964
▁Änderung	-3965
oper	-3966
▁sagte	-3967
▁funding	-3968
▁Zum	-3969
▁candidate	-3970
gu	-3971
ysteme	-3972
arbeitet	-3973
ij	-3974
nissen	-3975
▁sense	-3976
▁Brit	-3977
▁vern	-3978
▁build	-3979
▁presidency	-3980
▁Außer	-3981
▁German	-3982
▁Integr	-3983
▁geführt	-3984
▁extend	-3985
▁response	-3986
▁betroffen	-3987
▁population	-3988
ences	-3989
stellt	-3990
▁impact	-3991
gebracht	-3992
▁required	-3993
iew	-3994
▁movement	-3995
▁Res	-3996
▁Weit	-3997
handlung	-3998
▁bleiben	-3999
gungen	-4000
▁wider	-4001
▁Erfolg	-4002
sprozess	-4003
wand	-4004
▁zusätz	-4005
erb	-4006
seit	-4007
▁Wirk	-4008
▁Vertreter	-4009
▁regulations	-4010
▁Dritt	-4011
▁suggest	-4012
geleg	-4013
▁move	-4014
▁prepar	-4015
▁tell	-4016
▁Themen	-4017
sprechen	-4018
▁San	-4019
▁repe	-4020
▁Bestimmungen	-4021
▁prakt	-4022
▁criter	-4023
▁gestimmt	-4024
▁Eng	-4025
▁macht	-4026
▁appear	-4027
ürz	-4028
▁Den	-4029
▁nature	-4030
▁Angelegenheit	-4031
▁Ob	-4032
indung	-4033
▁Polic	-4034
▁highl	-4035
▁Punkte	-4036
▁unterb	-4037
Fraktion	-4038
ift	-4039
▁low	-4040
▁erheb	-4041
▁schein	-4042
▁markets	-4043
▁tatsächlich	-4044
Pro	-4045
▁16	-4046
alten	-4047
▁Kommissions	-4048
▁vier	-4049
▁bitte	-4050
▁Schluss	-4051
ehen	-4052
▁Steuer	-4053
▁betreffen	-4054
▁land	-4055
▁verein	-4056
▁training	-4057
▁Kap	-4058
ulture	-4059
▁solchen	-4060
▁held	-4061
▁waste	-4062
▁star	-4063
▁Sektor	-4064
edi	-4065
▁week	-4066
▁Gründen	-4067
▁Prinzip	-4068
▁Afghanistan	-4069
ec	-4070
ober	-4071
obil	-4072
▁either	-4073
▁pa	-4074
lätz	-4075
▁gee	-4076
▁Erstens	-4077
arta	-4078
auer	-4079
verb	-4080
▁conv	-4081
▁heut	-4082
▁basic	-4083
elon	-4084
ending	-4085
▁hatten	-4086
▁NA	-4087
▁head	-4088
by	-4089
istic	-4090
▁clar	-4091
▁leider	-4092
▁Anfrage	-4093
▁military	-4094
▁sustainable	-4095
cep	-4096
▁Nice	-4097
▁official	-4098
▁europäischer	-4099
▁18	-4100
iers	-4101
folge	-4102
▁prof	-4103
reiten	-4104
▁expressed	-4105
▁Nizza	-4106
▁französ	-4107
▁Vereinbar	-4108
▁Gemeinsamen	-4109
▁verfü	-4110
▁fordern	-4111
acc	-4112
legt	-4113
riff	-4114
tell	-4115
▁che	-4116
▁mer	-4117
▁namely	-4118
▁existing	-4119
▁Mitglieder	-4120
▁,	-4121
▁stark	-4122
▁liegen	-4123
▁foreign	-4124
▁verstär	-4125
▁Konferenz	-4126
ester	-4127
loyment	-4128
ylum	-4129
▁Famil	-4130
▁histor	-4131
▁gebracht	-4132
▁blo	-4133
▁Damit	-4134
▁Sinne	-4135
hörde	-4136
▁Wach	-4137
gewiesen	-4138
▁Abschließend	-4139
▁rein	-4140
itionen	-4141
▁Bas	-4142
▁task	-4143
▁Antrag	-4144
▁actions	-4145
▁zuständ	-4146
▁Ausschuß	-4147
▁Gewalt	-4148
▁eigentlich	-4149
▁miss	-4150
▁doubt	-4151
▁getan	-4152
▁everyone	-4153
▁critic	-4154
1999	-4155
▁Policy	-4156
▁analys	-4157
▁Plen	-4158
▁raised	-4159
▁saying	-4160
▁Erzeug	-4161
▁prepared	-4162
▁One	-4163
fence	-4164
▁Summit	-4165
▁Dokument	-4166
lemented	-4167
▁Pol	-4168
▁genu	-4169
drücklich	-4170
▁Zunächst	-4171
▁Fischerei	-4172
▁pen	-4173
forderungen	-4174
lik	-4175
▁akt	-4176
▁beh	-4177
arian	-4178
▁Inform	-4179
▁berücksichtigt	-4180
hern	-4181
omb	-4182
▁ty	-4183
▁compromise	-4184
ko	-4185
▁21	-4186
▁attemp	-4187
▁changes	-4188
▁rad	-4189
▁Tier	-4190
unities	-4191
zeichne	-4192
mor	-4193
ült	-4194
▁colleagues	-4195
sk	-4196
üt	-4197
pid	-4198
▁Agr	-4199
▁Will	-4200
▁suff	-4201
▁Außerdem	-4202
▁fast	-4203
▁verl	-4204
vors	-4205
▁Nos	-4206
formen	-4207
▁begrüßen	-4208
▁according	-4209
▁established	-4210
▁balance	-4211
▁throughout	-4212
geln	-4213
OM	-4214
▁17	-4215
▁Verteid	-4216
▁initiatives	-4217
haupt	-4218
▁Folgen	-4219
▁included	-4220
▁eindeutig	-4221
reten	-4222
▁asylum	-4223
▁Bürgern	-4224
schließlich	-4225
griffen	-4226
▁solidar	-4227
▁wesentlich	-4228
▁coordination	-4229
bare	-4230
idel	-4231
▁Nov	-4232
▁Asyl	-4233
schaftlichen	-4234
▁ban	-4235
stead	-4236
gument	-4237
▁poll	-4238
▁tragen	-4239
▁cla	-4240
▁stimmen	-4241
▁refle	-4242
▁fort	-4243
▁Bemerk	-4244
▁Flücht	-4245
▁Ergebnisse	-4246
▁application	-4247
▁aufgenommen	-4248
▁pot	-4249
▁Democ	-4250
▁keiner	-4251
imension	-4252
leisten	-4253
gerungen	-4254
▁Swedish	-4255
▁Vers	-4256
liches	-4257
uclear	-4258
▁refuge	-4259
▁illegal	-4260
▁Further	-4261
▁reading	-4262
▁regards	-4263
▁gewährleisten	-4264
▁langu	-4265
▁integration	-4266
sehen	-4267
▁beha	-4268
▁großer	-4269
▁decided	-4270
rief	-4271
▁remind	-4272
▁voting	-4273
▁justice	-4274
▁dat	-4275
▁Lebensmittel	-4276
▁Freiheit	-4277
igte	-4278
▁Kont	-4279
▁promote	-4280
▁budgetary	-4281
▁sit	-4282
▁satisf	-4283
▁values	-4284
▁farmers	-4285
gesellschaft	-4286
uly	-4287
ured	-4288
overty	-4289
▁hinweisen	-4290
▁angesprochen	-4291
lass	-4292
▁Augen	-4293
▁intens	-4294
hung	-4295
▁hard	-4296
government	-4297
erc	-4298
▁Ant	-4299
▁derart	-4300
▁November	-4301
▁criminal	-4302
▁verab	-4303
▁General	-4304
▁everything	-4305
▁requirements	-4306
▁Co	-4307
▁Beteil	-4308
▁nutzen	-4309
▁schwed	-4310
frei	-4311
▁purs	-4312
▁König	-4313
▁Aspekte	-4314
▁Richtlinien	-4315
wes	-4316
▁Leit	-4317
▁infl	-4318
▁assoc	-4319
▁beschlossen	-4320
ifel	-4321
▁legitim	-4322
abon	-4323
▁avo	-4324
ämt	-4325
ziehung	-4326
▁Schiff	-4327
▁except	-4328
▁quickly	-4329
▁Meine	-4330
pre	-4331
▁Tat	-4332
▁Rats	-4333
▁Organ	-4334
▁Initi	-4335
▁assistance	-4336
▁Instrument	-4337
1)	-4338
▁Human	-4339
▁leisten	-4340
hem	-4341
erve	-4342
rieg	-4343
▁Völk	-4344
▁limit	-4345
oy	-4346
oren	-4347
▁Verf	-4348
▁Daten	-4349
ualität	-4350
▁persön	-4351
▁representatives	-4352
äuf	-4353
hlen	-4354
▁determ	-4355
▁cultural	-4356
▁external	-4357
▁Grundsatz	-4358
issabon	-4359
▁extent	-4360
▁Lin	-4361
▁Dieses	-4362
▁Informations	-4363
ana	-4364
▁komp	-4365
fähigkeit	-4366
▁unabhäng	-4367
▁cho	-4368
▁dise	-4369
▁whose	-4370
▁erster	-4371
▁Therefore	-4372
▁Koh	-4373
▁concl	-4374
▁profit	-4375
▁Parteien	-4376
▁arbeiten	-4377
governmental	-4378
▁Hö	-4379
▁run	-4380
▁begrüße	-4381
▁pleased	-4382
▁Lissabon	-4383
▁note	-4384
wertung	-4385
▁Lisbon	-4386
ühungen	-4387
▁affect	-4388
▁Schwier	-4389
▁Sitzung	-4390
▁constru	-4391
▁Vertrags	-4392
▁relev	-4393
▁erfolg	-4394
stra	-4395
▁fishing	-4396
osla	-4397
ienen	-4398
ugosla	-4399
▁sufficient	-4400
▁einges	-4401
▁poverty	-4402
stitutional	-4403
▁Mär	-4404
ktr	-4405
▁Agrar	-4406
geschlossen	-4407
▁When	-4408
▁stability	-4409
▁wirtschaftliche	-4410
nern	-4411
▁Sache	-4412
▁Schul	-4413
▁powers	-4414
▁Regelung	-4415
ison	-4416
ösen	-4417
▁Dabei	-4418
arch	-4419
▁attack	-4420
▁Amendments	-4421
▁zug	-4422
gehend	-4423
hesion	-4424
▁Patten	-4425
pf	-4426
conomic	-4427
▁Entschließungs	-4428
▁Min	-4429
▁danke	-4430
▁criteria	-4431
ieht	-4432
iterr	-4433
gebung	-4434
▁Kenntnis	-4435
▁discrimin	-4436
son	-4437
grenz	-4438
▁list	-4439
teilen	-4440
iterran	-4441
setzungen	-4442
▁implemented	-4443
ibe	-4444
▁light	-4445
▁meisten	-4446
denken	-4447
▁einzu	-4448
▁Wasser	-4449
▁morgen	-4450
▁ermöglichen	-4451
▁vere	-4452
▁Wachstum	-4453
asch	-4454
▁ble	-4455
änger	-4456
immung	-4457
▁ö	-4458
orr	-4459
elten	-4460
ästin	-4461
ends	-4462
Europ	-4463
▁inst	-4464
morrow	-4465
▁wegen	-4466
▁hätten	-4467
zeichnet	-4468
▁tomorrow	-4469
isely	-4470
sterreich	-4471
▁Les	-4472
▁called	-4473
▁immedi	-4474
▁Partner	-4475
▁durchge	-4476
▁completely	-4477
▁Erfahr	-4478
▁specif	-4479
▁verbunden	-4480
▁schließlich	-4481
▁close	-4482
▁delay	-4483
▁allein	-4484
▁scient	-4485
▁sämt	-4486
ession	-4487
trächt	-4488
▁facil	-4489
staaten	-4490
▁begl	-4491
▁times	-4492
▁Stelle	-4493
▁pension	-4494
20	-4495
▁Furthermore	-4496
ush	-4497
▁formul	-4498
▁beschäft	-4499
▁Wes	-4500
▁France	-4501
▁suffer	-4502
▁priorities	-4503
bet	-4504
▁top	-4505
ftrag	-4506
okoll	-4507
▁hold	-4508
kennen	-4509
▁beglückw	-4510
▁interess	-4511
▁zumindest	-4512
▁wa	-4513
nehm	-4514
▁Wel	-4515
▁prü	-4516
▁Gerichts	-4517
▁restrict	-4518
▁beitragen	-4519
▁Arbeitsplätz	-4520
▁Sport	-4521
▁bevor	-4522
▁relating	-4523
▁gefordert	-4524
lain	-4525
▁spee	-4526
▁Armut	-4527
▁Prä	-4528
▁Palest	-4529
▁correct	-4530
▁Regional	-4531
▁berücksichtigen	-4532
ires	-4533
gesamt	-4534
▁Dinge	-4535
▁obwohl	-4536
▁approved	-4537
▁immigration	-4538
▁exam	-4539
▁leben	-4540
▁abge	-4541
▁mechan	-4542
idelines	-4543
▁Forderung	-4544
az	-4545
stren	-4546
▁anderer	-4547
▁fisheries	-4548
will	-4549
▁Liberalisierung	-4550
▁Handels	-4551
▁Verpflichtungen	-4552
▁fo	-4553
just	-4554
ünst	-4555
isiert	-4556
▁using	-4557
▁victims	-4558
laub	-4559
▁genannten	-4560
▁live	-4561
▁Heraus	-4562
sicherheit	-4563
ocol	-4564
▁happ	-4565
▁Bildung	-4566
▁content	-4567
PE	-4568
▁altern	-4569
▁fördern	-4570
▁Verkehrs	-4571
▁connection	-4572
▁monitoring	-4573
▁Koordinierung	-4574
▁bear	-4575
▁data	-4576
▁akzeptieren	-4577
fälle	-4578
▁jobs	-4579
▁Hinsicht	-4580
ublik	-4581
▁equal	-4582
▁Annahme	-4583
▁honourable	-4584
▁improvement	-4585
▁try	-4586
▁NATO	-4587
ira	-4588
läss	-4589
▁else	-4590
▁five	-4591
▁cause	-4592
▁behandelt	-4593
rank	-4594
▁Män	-4595
▁Nie	-4596
▁verg	-4597
isieren	-4598
▁enable	-4599
▁labour	-4600
▁Integration	-4601
li	-4602
5-03	-4603
rifft	-4604
▁hear	-4605
▁animals	-4606
▁Bef	-4607
-0	-4608
▁dest	-4609
pected	-4610
▁getro	-4611
▁received	-4612
▁Tätigkeit	-4613
▁Bemühungen	-4614
ron	-4615
▁May	-4616
▁Zivil	-4617
▁erinnern	-4618
handel	-4619
▁along	-4620
theless	-4621
▁Stellungnahme	-4622
ands	-4623
▁sex	-4624
▁Betrie	-4625
▁practical	-4626
▁Woche	-4627
iterranean	-4628
▁vorliegenden	-4629
▁hoch	-4630
derungen	-4631
▁Zustimmung	-4632
▁Finanzierung	-4633
▁erneut	-4634
▁Konflikt	-4635
▁verd	-4636
▁export	-4637
▁around	-4638
go	-4639
▁innov	-4640
▁Frank	-4641
▁animal	-4642
▁einheit	-4643
▁Nationen	-4644
▁talking	-4645
▁zweiten	-4646
buch	-4647
▁sum	-4648
agra	-4649
▁ten	-4650
▁bleibt	-4651
▁getroffen	-4652
▁absolutely	-4653
▁trotz	-4654
▁value	-4655
▁Königreich	-4656
▁verbessern	-4657
▁consequences	-4658
▁fell	-4659
kontro	-4660
bel	-4661
ilities	-4662
aging	-4663
▁ship	-4664
▁occas	-4665
▁Landes	-4666
▁levels	-4667
erkennung	-4668
leistungen	-4669
▁modern	-4670
äter	-4671
lling	-4672
emb	-4673
rachte	-4674
▁durchaus	-4675
▁dut	-4676
fahrens	-4677
▁lear	-4678
▁demonstr	-4679
▁Transport	-4680
▁Schwierigkeiten	-4681
ief	-4682
teile	-4683
▁krit	-4684
▁events	-4685
ciliation	-4686
▁Durchführung	-4687
ests	-4688
etary	-4689
▁death	-4690
▁recently	-4691
▁took	-4692
▁Grenzen	-4693
▁Ire	-4694
ändert	-4695
▁demokratischen	-4696
▁left	-4697
▁regret	-4698
▁discussed	-4699
▁40	-4700
▁guidelines	-4701
▁pat	-4702
sätze	-4703
▁camp	-4704
▁reached	-4705
▁".	-4706
▁More	-4707
▁type	-4708
▁Vermitt	-4709
▁Monaten	-4710
▁nuclear	-4711
▁Gar	-4712
vorsitz	-4713
▁conclusion	-4714
gelt	-4715
▁Haupt	-4716
▁behind	-4717
▁precisely	-4718
▁bl	-4719
würd	-4720
leben	-4721
erweise	-4722
ets	-4723
▁woll	-4724
agraph	-4725
▁considered	-4726
zusch	-4727
▁total	-4728
▁Lassen	-4729
▁community	-4730
▁ce	-4731
▁Gipfel	-4732
▁Charter	-4733
▁direction	-4734
▁knowledge	-4735
▁bestimmten	-4736
▁Last	-4737
▁mess	-4738
▁Ireland	-4739
▁uner	-4740
lim	-4741
hoben	-4742
▁höch	-4743
▁circum	-4744
ierenden	-4745
▁endlich	-4746
uest	-4747
▁documents	-4748
▁ständ	-4749
▁Lesung	-4750
▁confidence	-4751
liz	-4752
▁ill	-4753
tragen	-4754
▁gerecht	-4755
▁tradition	-4756
ilar	-4757
▁Wert	-4758
▁port	-4759
wendet	-4760
wogen	-4761
▁führt	-4762
▁Plan	-4763
▁Opfer	-4764
▁accep	-4765
produ	-4766
▁huge	-4767
iveness	-4768
▁applied	-4769
▁Beihilfen	-4770
▁Anerkennung	-4771
▁Dez	-4772
▁Anstren	-4773
▁verantwort	-4774
achten	-4775
▁violence	-4776
▁versuchen	-4777
xis	-4778
▁Partei	-4779
bedingungen	-4780
▁solidarity	-4781
chs	-4782
ugend	-4783
▁across	-4784
▁Haltung	-4785
▁Mitgliedstaat	-4786
▁Mor	-4787
alien	-4788
▁gleichen	-4789
que	-4790
durch	-4791
ume	-4792
stre	-4793
▁mut	-4794
▁becom	-4795
▁konkrete	-4796
▁Environment	-4797
▁Grundrechte	-4798
▁Of	-4799
chter	-4800
▁ever	-4801
gelegten	-4802
rok	-4803
▁review	-4804
▁stärker	-4805
▁internationale	-4806
▁Fahr	-4807
▁authority	-4808
▁reduce	-4809
istische	-4810
▁propose	-4811
ärm	-4812
▁emer	-4813
▁carry	-4814
▁weder	-4815
▁zeigt	-4816
▁Justice	-4817
▁gesamte	-4818
▁experience	-4819
▁folgt	-4820
rechend	-4821
▁increased	-4822
rats	-4823
▁une	-4824
▁pack	-4825
▁Africa	-4826
▁geschaffen	-4827
iet	-4828
ünsch	-4829
olution	-4830
▁amount	-4831
▁brought	-4832
▁vollständ	-4833
▁specifically	-4834
erungen	-4835
▁welt	-4836
▁Ansatz	-4837
▁gesprochen	-4838
tel	-4839
▁conclusions	-4840
▁administrative	-4841
ously	-4842
▁Aufgaben	-4843
▁bem	-4844
▁flexib	-4845
▁giving	-4846
ighted	-4847
wirken	-4848
ikanischen	-4849
▁effiz	-4850
▁scope	-4851
▁motion	-4852
▁Stock	-4853
▁detail	-4854
ux	-4855
▁By	-4856
▁Sec	-4857
kraft	-4858
führen	-4859
▁Ihrer	-4860
▁fellow	-4861
▁sectors	-4862
▁",	-4863
▁san	-4864
iting	-4865
▁Kern	-4866
prinzip	-4867
rachten	-4868
▁übrigen	-4869
▁consideration	-4870
bahn	-4871
▁old	-4872
▁Acht	-4873
uellen	-4874
▁Fällen	-4875
▁prüfen	-4876
anderung	-4877
LA	-4878
eg	-4879
acity	-4880
▁Beschluss	-4881
▁wichtiger	-4882
▁investment	-4883
▁instruments	-4884
haben	-4885
▁reject	-4886
ästinens	-4887
▁Firstly	-4888
▁gemäß	-4889
▁observ	-4890
esterday	-4891
▁recognis	-4892
▁Präsidenten	-4893
▁liberalisation	-4894
(200	-4895
reff	-4896
▁Einz	-4897
▁takes	-4898
▁Justiz	-4899
▁despite	-4900
▁Verwaltung	-4901
▁beant	-4902
▁days	-4903
▁recon	-4904
▁Haushalt	-4905
▁Directive	-4906
merksamkeit	-4907
▁verhindern	-4908
▁rule	-4909
▁sorgen	-4910
aat	-4911
▁gere	-4912
▁grat	-4913
▁substant	-4914
▁Anstrengungen	-4915
▁Aufmerksamkeit	-4916
lauf	-4917
ister	-4918
zuführen	-4919
zif	-4920
bericht	-4921
▁creation	-4922
▁Frankreich	-4923
▁parliamentary	-4924
▁Ass	-4925
▁face	-4926
▁Sorge	-4927
▁unbeding	-4928
ption	-4929
▁finanziellen	-4930
▁comment	-4931
▁potential	-4932
▁mass	-4933
▁referred	-4934
▁gegenwärtig	-4935
▁Ged	-4936
▁prot	-4937
▁Wissen	-4938
ärkung	-4939
▁party	-4940
▁irgend	-4941
▁normal	-4942
▁constit	-4943
iken	-4944
ützen	-4945
▁extra	-4946
verkehrs	-4947
▁Palestin	-4948
▁Untersuch	-4949
▁überhaupt	-4950
▁considerable	-4951
▁Völker	-4952
▁purpose	-4953
pendent	-4954
▁almost	-4955
▁jen	-4956
forms	-4957
▁join	-4958
▁Charta	-4959
▁spezie	-4960
▁capital	-4961
▁möchten	-4962
▁provision	-4963
mark	-4964
▁incor	-4965
▁mensch	-4966
▁stated	-4967
▁ergreifen	-4968
▁diejenigen	-4969
▁feststellen	-4970
bs	-4971
▁mis	-4972
▁six	-4973
astung	-4974
▁Spiel	-4975
schließen	-4976
▁wiederhol	-4977
▁ine	-4978
engen	-4979
▁Deut	-4980
▁relevant	-4981
▁Vertrauen	-4982
▁Verteidigung	-4983
uten	-4984
ourcen	-4985
▁assessment	-4986
oden	-4987
bourg	-4988
▁Absicht	-4989
▁opportunities	-4990
▁dringend	-4991
met	-4992
▁Handel	-4993
▁em	-4994
▁cred	-4995
▁guten	-4996
ensicht	-4997
▁coming	-4998
▁konnte	-4999
▁police	-5000
▁Währung	-5001
▁rapid	-5002
▁Solidar	-5003
▁sy	-5004
ucht	-5005
reign	-5006
▁proceed	-5007
▁reality	-5008
sibilities	-5009
action	-5010
▁diesbe	-5011
▁directives	-5012
▁hingewiesen	-5013
ßt	-5014
▁sus	-5015
usion	-5016
▁Ereign	-5017
▁condem	-5018
▁thanks	-5019
zusetzen	-5020
▁Nun	-5021
hnung	-5022
▁bezug	-5023
▁jedem	-5024
▁Meiner	-5025
▁obtain	-5026
ugs	-5027
▁bi	-5028
quate	-5029
▁bezüglich	-5030
sum	-5031
meer	-5032
anced	-5033
änden	-5034
▁erhö	-5035
▁Natur	-5036
▁forms	-5037
▁1997	-5038
▁kleinen	-5039
rift	-5040
▁Projekt	-5041
industrie	-5042
▁cohesion	-5043
▁insgesamt	-5044
▁unbedingt	-5045
▁vergessen	-5046
▁Ide	-5047
▁Kom	-5048
lüsse	-5049
▁staff	-5050
hrist	-5051
accept	-5052
▁contr	-5053
▁evalu	-5054
▁Minder	-5055
▁effects	-5056
mitglie	-5057
▁pressure	-5058
5-02	-5059
▁price	-5060
eschrän	-5061
▁trying	-5062
▁Schengen	-5063
▁Änderungen	-5064
ins	-5065
dere	-5066
ffick	-5067
▁Linie	-5068
▁brief	-5069
andidaten	-5070
▁Stockhol	-5071
▁Natürlich	-5072
hän	-5073
▁oil	-5074
lägen	-5075
▁Vorbereit	-5076
▁darstellt	-5077
▁öffentliche	-5078
räft	-5079
onnen	-5080
▁sort	-5081
▁efficient	-5082
hren	-5083
▁self	-5084
▁hinter	-5085
▁accordance	-5086
üng	-5087
zehn	-5088
▁art	-5089
▁Hoff	-5090
▁model	-5091
strumente	-5092
▁circumstances	-5093
polit	-5094
rachen	-5095
▁enthält	-5096
▁reference	-5097
▁entsprechenden	-5098
uern	-5099
▁Kollege	-5100
▁unaccept	-5101
▁cross	-5102
abkommen	-5103
schlossen	-5104
▁affected	-5105
▁discussions	-5106
▁1.	-5107
▁Wahr	-5108
▁away	-5109
▁bitten	-5110
▁urgent	-5111
▁Republic	-5112
uted	-5113
▁Ira	-5114
▁East	-5115
ategor	-5116
▁heard	-5117
▁additional	-5118
aden	-5119
▁avoid	-5120
▁return	-5121
▁ziehen	-5122
▁finally	-5123
▁scheint	-5124
▁creating	-5125
▁weltweit	-5126
▁possibility	-5127
▁discrimination	-5128
▁dom	-5129
▁Kommun	-5130
▁Verwaltungs	-5131
▁Grunde	-5132
▁combat	-5133
udge	-5134
▁plans	-5135
▁relig	-5136
ensions	-5137
▁festgelegt	-5138
utter	-5139
ktions	-5140
gere	-5141
arily	-5142
▁Paper	-5143
▁Spanish	-5144
pekt	-5145
▁Waffen	-5146
▁myself	-5147
▁participation	-5148
EC	-5149
utzt	-5150
▁Straf	-5151
▁Ausführ	-5152
▁defence	-5153
▁outside	-5154
▁Berichte	-5155
▁funktion	-5156
omat	-5157
este	-5158
▁Ort	-5159
▁häuf	-5160
▁vital	-5161
▁hoffen	-5162
▁Stockholm	-5163
▁ausgezeichne	-5164
of	-5165
▁Zuständ	-5166
▁Gesundheits	-5167
▁Initiativen	-5168
▁Prioritäten	-5169
▁gab	-5170
ürger	-5171
▁deta	-5172
▁sinn	-5173
dienst	-5174
▁gewor	-5175
erences	-5176
ausschusses	-5177
▁Sa	-5178
gült	-5179
missions	-5180
▁accession	-5181
bank	-5182
uche	-5183
▁Priv	-5184
▁fig	-5185
celon	-5186
endit	-5187
imate	-5188
▁Barcelon	-5189
▁heutigen	-5190
▁unacceptable	-5191
▁unan	-5192
▁capacity	-5193
▁erwarten	-5194
▁Barcelona	-5195
▁transparent	-5196
äus	-5197
lare	-5198
lier	-5199
idents	-5200
▁Absatz	-5201
▁kulture	-5202
▁material	-5203
▁Menschenrechts	-5204
),	-5205
▁World	-5206
▁sport	-5207
▁confirm	-5208
▁Po	-5209
▁rate	-5210
ließen	-5211
▁span	-5212
▁Kriterien	-5213
öst	-5214
räfte	-5215
wenden	-5216
▁Straß	-5217
ünsche	-5218
mat	-5219
▁trag	-5220
▁bestät	-5221
amm	-5222
▁fl	-5223
here	-5224
▁National	-5225
▁bemü	-5226
teilung	-5227
▁threat	-5228
folgerungen	-5229
▁bestehenden	-5230
▁Fehl	-5231
ants	-5232
▁Dazu	-5233
▁sour	-5234
▁Greece	-5235
▁zustimmen	-5236
dle	-5237
llos	-5238
▁MEP	-5239
▁van	-5240
▁Netz	-5241
▁Seiten	-5242
▁treffen	-5243
ügen	-5244
▁tim	-5245
auern	-5246
▁Auss	-5247
▁thus	-5248
▁status	-5249
▁receive	-5250
▁fal	-5251
▁Staat	-5252
▁bekommen	-5253
▁supported	-5254
▁definition	-5255
▁abst	-5256
▁traffick	-5257
▁entschieden	-5258
dict	-5259
wise	-5260
▁Kar	-5261
▁Druck	-5262
▁dadurch	-5263
▁directly	-5264
▁Protokoll	-5265
▁entwickeln	-5266
▁Einzel	-5267
unternehmen	-5268
▁allgemeinen	-5269
▁Now	-5270
ureau	-5271
▁tack	-5272
fordern	-5273
laration	-5274
▁intended	-5275
▁Falle	-5276
▁Plenum	-5277
▁Portugal	-5278
▁verstehen	-5279
▁sup	-5280
leisch	-5281
▁disas	-5282
▁Unsere	-5283
▁rightly	-5284
acy	-5285
▁24	-5286
handen	-5287
▁plann	-5288
▁anything	-5289
▁konzentr	-5290
▁vorgeschlagenen	-5291
imb	-5292
iter	-5293
▁wid	-5294
aktor	-5295
▁central	-5296
▁measure	-5297
▁reforms	-5298
velopment	-5299
▁accepted	-5300
▁met	-5301
▁freue	-5302
▁staat	-5303
rants	-5304
▁Maße	-5305
▁Eisen	-5306
▁jedes	-5307
▁overall	-5308
▁investig	-5309
▁developed	-5310
▁22	-5311
▁vol	-5312
▁brit	-5313
▁prob	-5314
▁überw	-5315
▁December	-5316
▁parliaments	-5317
bru	-5318
ulf	-5319
▁Imp	-5320
▁Grie	-5321
▁konkreten	-5322
▁Ky	-5323
werk	-5324
▁ethn	-5325
▁verehrte	-5326
ktivitäten	-5327
head	-5328
▁comments	-5329
▁Diskrimin	-5330
ta	-5331
▁Miss	-5332
▁Nord	-5333
laufen	-5334
▁disch	-5335
▁views	-5336
▁gewesen	-5337
▁Regulation	-5338
▁difficulties	-5339
▁organisation	-5340
▁Eff	-5341
▁Febru	-5342
▁risks	-5343
▁Praxis	-5344
▁refugees	-5345
▁treatment	-5346
abel	-5347
bezogen	-5348
▁Regelungen	-5349
▁23	-5350
▁ko	-5351
aign	-5352
jahr	-5353
▁bank	-5354
▁Defin	-5355
▁Versch	-5356
▁jeweil	-5357
▁Schließ	-5358
▁personal	-5359
▁elections	-5360
ande	-5361
▁jüng	-5362
▁spielen	-5363
▁technology	-5364
▁Organisationen	-5365
ots	-5366
üssel	-5367
orgung	-5368
▁Darüber	-5369
änderungen	-5370
▁geleistet	-5371
inden	-5372
▁somit	-5373
itation	-5374
▁untern	-5375
▁wanted	-5376
▁implementing	-5377
10	-5378
▁schle	-5379
▁Anfang	-5380
▁limited	-5381
▁businesses	-5382
▁structural	-5383
▁Mediterranean	-5384
▁dev	-5385
▁consultation	-5386
spar	-5387
▁gern	-5388
▁Aller	-5389
▁stets	-5390
▁Dezember	-5391
dom	-5392
tes	-5393
zeugen	-5394
▁Jugend	-5395
▁beschrän	-5396
▁beginning	-5397
ars	-5398
ktron	-5399
▁goes	-5400
▁forces	-5401
▁medium	-5402
ulierung	-5403
▁außerdem	-5404
ensichtlich	-5405
üg	-5406
▁spir	-5407
▁word	-5408
▁design	-5409
▁created	-5410
▁Uhr	-5411
▁half	-5412
vorschlag	-5413
▁campaign	-5414
▁Verwendung	-5415
▁Dan	-5416
▁früher	-5417
▁Europol	-5418
▁setting	-5419
EN	-5420
cts	-5421
ieben	-5422
▁home	-5423
▁condu	-5424
▁ermögl	-5425
▁family	-5426
▁geworden	-5427
▁yesterday	-5428
zed	-5429
▁Fun	-5430
system	-5431
▁findet	-5432
▁incorpor	-5433
▁speaking	-5434
▁Ausführungen	-5435
▁11.	-5436
▁People	-5437
▁vorsch	-5438
▁Griechen	-5439
zeß	-5440
ging	-5441
▁ign	-5442
unsch	-5443
rehens	-5444
▁exclus	-5445
▁British	-5446
pril	-5447
▁Mil	-5448
▁date	-5449
▁exact	-5450
▁ord	-5451
schiede	-5452
▁American	-5453
▁wichtigsten	-5454
iten	-5455
▁Dro	-5456
pflich	-5457
▁sieht	-5458
llschaften	-5459
▁scientific	-5460
FR	-5461
icles	-5462
▁schw	-5463
▁extens	-5464
▁applies	-5465
▁Solidarität	-5466
▁New	-5467
▁PPE	-5468
▁ihres	-5469
▁Fortsch	-5470
▁traffic	-5471
▁angemessen	-5472
aly	-5473
anze	-5474
ienz	-5475
▁flo	-5476
geber	-5477
▁sound	-5478
▁unemp	-5479
▁Wochen	-5480
▁living	-5481
▁penalt	-5482
▁condemn	-5483
teb	-5484
▁April	-5485
▁advant	-5486
▁Ministers	-5487
▁committed	-5488
▁Kompromiss	-5489
▁ermöglicht	-5490
fect	-5491
teilt	-5492
▁Bild	-5493
ression	-5494
▁summit	-5495
▁Achtung	-5496
▁distrib	-5497
LAF	-5498
▁age	-5499
▁bur	-5500
indet	-5501
▁stra	-5502
unkten	-5503
▁Von	-5504
▁verk	-5505
▁exerc	-5506
▁erwähnt	-5507
▁Investitionen	-5508
▁Grenz	-5509
▁enorm	-5510
uestion	-5511
entscheid	-5512
orn	-5513
▁effekt	-5514
▁prevention	-5515
cke	-5516
ynam	-5517
udgets	-5518
▁demands	-5519
▁eingere	-5520
▁Bereiche	-5521
▁independent	-5522
▁beglückwünschen	-5523
▁reply	-5524
▁separ	-5525
▁commer	-5526
▁einiger	-5527
▁humanitarian	-5528
/00	-5529
ired	-5530
nungs	-5531
▁einzige	-5532
▁minimum	-5533
gesundheit	-5534
▁möglichst	-5535
▁minister	-5536
▁organised	-5537
anner	-5538
itude	-5539
▁Mark	-5540
▁genuine	-5541
▁morning	-5542
Os	-5543
▁ä	-5544
ool	-5545
▁Lam	-5546
▁2003	-5547
rieben	-5548
schreit	-5549
greement	-5550
▁Einsatz	-5551
▁erzielt	-5552
▁verurteil	-5553
bereinkommen	-5554
▁sk	-5555
odies	-5556
▁fehl	-5557
▁side	-5558
▁dealing	-5559
▁Agreement	-5560
▁Forschungs	-5561
▁Ze	-5562
▁198	-5563
▁Rom	-5564
ietet	-5565
▁frei	-5566
ämpfen	-5567
barkeit	-5568
▁Schwed	-5569
▁max	-5570
iddle	-5571
ussels	-5572
▁Preis	-5573
▁safegu	-5574
▁Nations	-5575
▁militär	-5576
▁unanim	-5577
▁requires	-5578
▁seriously	-5579
▁verpflich	-5580
▁Allerdings	-5581
▁discussing	-5582
▁effectively	-5583
achtet	-5584
▁speed	-5585
▁erforderlichen	-5586
uz	-5587
olid	-5588
▁impos	-5589
beziehung	-5590
▁Vergangen	-5591
yond	-5592
▁Pat	-5593
▁cut	-5594
zeugt	-5595
▁leaders	-5596
▁Forderungen	-5597
▁establishing	-5598
▁highly	-5599
▁useful	-5600
▁Fraktionen	-5601
▁Krieg	-5602
▁Gesprä	-5603
▁Public	-5604
▁company	-5605
▁konnten	-5606
▁2004	-5607
rahmen	-5608
▁instead	-5609
▁Tr	-5610
▁anzu	-5611
gesetz	-5612
berwach	-5613
reffend	-5614
▁pointed	-5615
mand	-5616
▁stop	-5617
▁fragen	-5618
▁speech	-5619
reichend	-5620
▁schem	-5621
▁gering	-5622
▁concept	-5623
▁encourage	-5624
▁borders	-5625
▁verfügen	-5626
▁versucht	-5627
unch	-5628
langt	-5629
▁Nahr	-5630
▁prim	-5631
▁caused	-5632
▁Brussels	-5633
▁Behandlung	-5634
▁industrial	-5635
bend	-5636
ritte	-5637
schätz	-5638
rittens	-5639
▁Irland	-5640
▁gehören	-5641
▁similar	-5642
▁Ad	-5643
▁El	-5644
ernen	-5645
odell	-5646
icherung	-5647
▁Ratsvorsitz	-5648
anzen	-5649
▁Tamp	-5650
etimes	-5651
▁Regeln	-5652
▁später	-5653
▁Technolog	-5654
▁Bl	-5655
▁Folge	-5656
▁Werte	-5657
▁coher	-5658
▁message	-5659
grundlage	-5660
▁langfrist	-5661
▁acceptable	-5662
äher	-5663
▁neuer	-5664
▁infrastr	-5665
sec	-5666
▁lok	-5667
igungen	-5668
▁bodies	-5669
▁durchgeführt	-5670
▁reag	-5671
▁weak	-5672
▁positiv	-5673
haus	-5674
äfen	-5675
zieht	-5676
▁Ress	-5677
▁Global	-5678
▁Brüssel	-5679
▁allowed	-5680
▁Turk	-5681
▁discharge	-5682
▁Ausbildung	-5683
▁entsprechend	-5684
▁Vergangenheit	-5685
atch	-5686
uese	-5687
▁arran	-5688
bringen	-5689
▁counter	-5690
uni	-5691
mden	-5692
▁Einrichtung	-5693
▁notwendigen	-5694
▁lot	-5695
zeigt	-5696
▁OLAF	-5697
▁dipl	-5698
▁länd	-5699
▁beyond	-5700
▁Central	-5701
▁respond	-5702
▁produced	-5703
▁developments	-5704
adt	-5705
▁br	-5706
ilden	-5707
▁Thank	-5708
frieden	-5709
▁earlier	-5710
▁kommenden	-5711
▁partnership	-5712
▁trafficking	-5713
itial	-5714
▁Unser	-5715
▁Aspekt	-5716
▁Belgian	-5717
▁Stellen	-5718
▁außerord	-5719
▁entsprechende	-5720
▁Inde	-5721
▁shown	-5722
▁Agenda	-5723
▁zeigen	-5724
▁darstellen	-5725
bed	-5726
oto	-5727
where	-5728
▁eher	-5729
▁zehn	-5730
▁White	-5731
▁Stud	-5732
▁ersch	-5733
▁manner	-5734
▁Tampere	-5735
▁expendit	-5736
▁infrastruct	-5737
▁Einbeziehung	-5738
▁acqu	-5739
▁bewusst	-5740
▁künftig	-5741
▁argument	-5742
▁entgegen	-5743
▁probably	-5744
▁Portuguese	-5745
▁aufmerksam	-5746
▁verpflichtet	-5747
▁unfortunately	-5748
min	-5749
nel	-5750
urd	-5751
nungen	-5752
▁benöt	-5753
mission	-5754
▁umgesetzt	-5755
▁expenditure	-5756
▁institutional	-5757
▁100	-5758
▁unz	-5759
▁sent	-5760
▁anerk	-5761
▁beein	-5762
entwick	-5763
▁delegation	-5764
▁commitments	-5765
▁II	-5766
▁Haft	-5767
▁Meth	-5768
▁Report	-5769
▁decide	-5770
▁produce	-5771
▁Economic	-5772
▁vorhanden	-5773
▁eingesetzt	-5774
▁Lux	-5775
▁Prü	-5776
imbab	-5777
▁Gesamt	-5778
▁closely	-5779
▁gesetzt	-5780
ense	-5781
▁Rent	-5782
▁Worte	-5783
▁employe	-5784
▁Ausgaben	-5785
▁Republik	-5786
▁effizient	-5787
▁sicherlich	-5788
isc	-5789
▁Gö	-5790
▁Ang	-5791
sprün	-5792
change	-5793
▁check	-5794
▁explo	-5795
▁author	-5796
ological	-5797
▁ensuring	-5798
▁code	-5799
▁deep	-5800
▁leave	-5801
achtung	-5802
▁prices	-5803
▁Verhält	-5804
▁disease	-5805
▁vernünft	-5806
▁tw	-5807
lant	-5808
ender	-5809
▁early	-5810
▁voraus	-5811
▁firstly	-5812
▁sitting	-5813
▁unmittel	-5814
rägt	-5815
▁ändern	-5816
▁Sanktionen	-5817
▁worth	-5818
▁Nutzung	-5819
▁elektron	-5820
▁Empfehlung	-5821
▁diskutieren	-5822
▁Tab	-5823
itors	-5824
▁Serb	-5825
▁fear	-5826
▁Begriff	-5827
▁Germany	-5828
▁bessere	-5829
▁Sc	-5830
▁Mont	-5831
▁pursu	-5832
▁besten	-5833
▁Gu	-5834
▁Wohl	-5835
▁Nahrungs	-5836
▁improving	-5837
▁Development	-5838
rec	-5839
▁fri	-5840
▁veh	-5841
▁ways	-5842
▁warum	-5843
▁gratul	-5844
▁häufig	-5845
▁zentral	-5846
▁paragraph	-5847
▁recognise	-5848
orgnis	-5849
▁descr	-5850
▁currency	-5851
▁Beteiligung	-5852
teen	-5853
used	-5854
anden	-5855
▁Eind	-5856
präsident	-5857
▁substantial	-5858
amer	-5859
▁Rechn	-5860
▁Third	-5861
▁nochmals	-5862
ourn	-5863
letzt	-5864
▁paid	-5865
▁rene	-5866
▁unge	-5867
▁later	-5868
zeichnen	-5869
▁consist	-5870
▁Gebieten	-5871
▁activity	-5872
▁befinden	-5873
▁div	-5874
▁betonen	-5875
best	-5876
kung	-5877
▁Sweden	-5878
▁natural	-5879
uelle	-5880
▁initial	-5881
▁reduction	-5882
▁sanctions	-5883
▁Delegation	-5884
arr	-5885
▁Mio	-5886
wesen	-5887
▁damage	-5888
▁zunehmen	-5889
▁obviously	-5890
▁Gesetzgebung	-5891
sektor	-5892
▁Einfl	-5893
▁dealt	-5894
▁fraud	-5895
▁lives	-5896
▁Kritik	-5897
▁pollution	-5898
▁Schw	-5899
elsink	-5900
▁active	-5901
▁successful	-5902
pret	-5903
ought	-5904
▁herr	-5905
elsinki	-5906
▁gestern	-5907
▁ursprün	-5908
▁gekommen	-5909
▁Katastrop	-5910
▁betrachte	-5911
▁amer	-5912
stelle	-5913
▁alone	-5914
▁Zweifel	-5915
▁contribute	-5916
/2	-5917
zö	-5918
rong	-5919
▁analysis	-5920
▁erschein	-5921
▁properly	-5922
▁undertak	-5923
▁Eisenbahn	-5924
▁conference	-5925
oph	-5926
▁27	-5927
ässt	-5928
▁Rev	-5929
▁bald	-5930
▁Irish	-5931
▁ought	-5932
▁kontro	-5933
▁Mittelmeer	-5934
▁Einwanderung	-5935
▁tar	-5936
▁anti	-5937
▁belg	-5938
▁Since	-5939
▁lik	-5940
urance	-5941
▁associ	-5942
▁größere	-5943
▁terrorist	-5944
▁increasingly	-5945
ginn	-5946
▁big	-5947
statt	-5948
▁known	-5949
▁Pflicht	-5950
▁anderem	-5951
▁operation	-5952
▁introduction	-5953
▁offensichtlich	-5954
.)	-5955
af	-5956
▁wrong	-5957
ierende	-5958
▁Inhalt	-5959
▁Deutsch	-5960
▁Zentral	-5961
▁Helsinki	-5962
amb	-5963
lam	-5964
ones	-5965
▁Bot	-5966
▁red	-5967
aktion	-5968
▁Harmon	-5969
▁annual	-5970
▁Reformen	-5971
HO	-5972
ape	-5973
▁et	-5974
▁jede	-5975
▁competen	-5976
▁Zw	-5977
otes	-5978
uded	-5979
▁ehr	-5980
iency	-5981
mäßig	-5982
▁sage	-5983
▁Spain	-5984
▁liebe	-5985
ikation	-5986
▁Austria	-5987
▁remember	-5988
▁öffentlich	-5989
▁Entl	-5990
esehen	-5991
▁Budget	-5992
▁providing	-5993
lägt	-5994
onom	-5995
raten	-5996
wortet	-5997
▁dagegen	-5998
▁zufrieden	-5999
fu	-6000
vis	-6001
▁28	-6002
▁ade	-6003
▁duty	-6004
▁grant	-6005
losigkeit	-6006
▁Bewertung	-6007
frastruktur	-6008
ox	-6009
▁gre	-6010
▁urge	-6011
ilität	-6012
▁übrig	-6013
▁vorher	-6014
möglichkeit	-6015
▁zahlreiche	-6016
▁Schließlich	-6017
In	-6018
behörde	-6019
▁challenge	-6020
▁Beschäftigungs	-6021
zwe	-6022
atik	-6023
opol	-6024
▁Gef	-6025
▁beru	-6026
amente	-6027
making	-6028
▁school	-6029
▁Vereinten	-6030
▁Einhaltung	-6031
ino	-6032
coming	-6033
▁Sy	-6034
▁name	-6035
▁alloc	-6036
▁goods	-6037
▁wären	-6038
▁Zeitraum	-6039
▁agriculture	-6040
ash	-6041
ton	-6042
▁gain	-6043
ibility	-6044
▁Nieder	-6045
grenzung	-6046
▁thought	-6047
▁willing	-6048
sprogramm	-6049
▁einsetzen	-6050
▁Verpflichtung	-6051
unt	-6052
iens	-6053
isms	-6054
▁zul	-6055
▁Landwir	-6056
▁ausführ	-6057
▁Projekte	-6058
▁contrary	-6059
▁geschehen	-6060
▁wesentlichen	-6061
DA	-6062
▁Weiß	-6063
▁grenz	-6064
▁Solana	-6065
▁produc	-6066
▁compens	-6067
▁happened	-6068
▁Gest	-6069
▁whom	-6070
▁Tagung	-6071
lad	-6072
▁Göteb	-6073
▁gewiss	-6074
▁highlight	-6075
▁ausgewogen	-6076
▁60	-6077
▁Ph	-6078
▁log	-6079
▁dank	-6080
ifellos	-6081
▁dangerous	-6082
▁anz	-6083
hören	-6084
fallen	-6085
gruppen	-6086
▁America	-6087
▁substances	-6088
AL	-6089
maßen	-6090
▁Krise	-6091
▁Kyoto	-6092
gn	-6093
▁UK	-6094
▁firm	-6095
▁thous	-6096
imbabwe	-6097
▁endgült	-6098
▁package	-6099
▁laws	-6100
ortion	-6101
struktur	-6102
▁culture	-6103
▁looking	-6104
▁remains	-6105
▁Rechnungs	-6106
▁submitted	-6107
▁Aktivitäten	-6108
▁Arbeitsplätze	-6109
ismen	-6110
suchen	-6111
▁Drogen	-6112
▁Weiter	-6113
▁explan	-6114
▁January	-6115
▁sometimes	-6116
▁verfolgen	-6117
▁Definition	-6118
ützt	-6119
▁Süd	-6120
werte	-6121
▁body	-6122
▁Macht	-6123
▁hinzu	-6124
▁stock	-6125
▁Privat	-6126
▁totally	-6127
▁schwierig	-6128
▁Instrumente	-6129
cknow	-6130
bergang	-6131
▁Entwurf	-6132
▁Mitteln	-6133
▁element	-6134
▁erklärt	-6135
▁negative	-6136
attle	-6137
▁June	-6138
▁wonder	-6139
▁Aufnahme	-6140
▁nationale	-6141
▁alternative	-6142
eks	-6143
▁Gl	-6144
5-04	-6145
▁ganze	-6146
▁gesehen	-6147
ience	-6148
▁weeks	-6149
▁acknow	-6150
▁language	-6151
▁networks	-6152
▁Festlegung	-6153
▁Empfehlungen	-6154
▁intervention	-6155
ums	-6156
▁nah	-6157
schuld	-6158
▁steps	-6159
ungsver	-6160
▁intention	-6161
▁Mo	-6162
heim	-6163
▁Juni	-6164
▁Rand	-6165
European	-6166
▁standard	-6167
ungsverfahren	-6168
▁festgestellt	-6169
▁typ	-6170
▁übernehmen	-6171
chnung	-6172
▁remark	-6173
▁spirit	-6174
richtungen	-6175
▁überzeugt	-6176
▁recognition	-6177
▁administration	-6178
▁South	-6179
▁gewähl	-6180
▁influen	-6181
▁gefunden	-6182
▁richtige	-6183
▁colleague	-6184
äne	-6185
▁Gra	-6186
▁verm	-6187
▁Beginn	-6188
▁billion	-6189
▁Stärkung	-6190
COD	-6191
body	-6192
ielt	-6193
annte	-6194
ounts	-6195
▁Gene	-6196
▁MEPs	-6197
▁test	-6198
▁Wider	-6199
amentar	-6200
legungen	-6201
▁Straßen	-6202
▁Fundamental	-6203
▁Palestinian	-6204
▁relationship	-6205
▁Zur	-6206
▁neu	-6207
ausch	-6208
ekten	-6209
▁abzu	-6210
▁dead	-6211
▁lässt	-6212
zeugung	-6213
ortugies	-6214
▁erfüllen	-6215
▁thinking	-6216
▁finanzielle	-6217
▁französischen	-6218
▁sl	-6219
▁King	-6220
▁Some	-6221
▁mainly	-6222
▁Turkish	-6223
▁portugies	-6224
▁1,	-6225
▁jene	-6226
▁mand	-6227
▁Sonder	-6228
▁stimme	-6229
freiheit	-6230
▁Anliegen	-6231
▁judicial	-6232
▁unternehmen	-6233
▁Strukturfonds	-6234
▁gegenwärtigen	-6235
▁Sh	-6236
falt	-6237
▁class	-6238
▁study	-6239
▁leicht	-6240
▁complex	-6241
▁Göteborg	-6242
▁erfolgen	-6243
▁exchange	-6244
punkte	-6245
▁Health	-6246
▁verste	-6247
▁provides	-6248
▁Ressourcen	-6249
ior	-6250
▁gives	-6251
▁bedarf	-6252
▁solutions	-6253
▁Stabilität	-6254
ört	-6255
ufact	-6256
▁regime	-6257
▁mehrere	-6258
▁convention	-6259
▁Vorschlägen	-6260
▁stattfinden	-6261
organisationen	-6262
ex	-6263
hm	-6264
oses	-6265
linge	-6266
▁Führ	-6267
▁Anges	-6268
▁repla	-6269
▁unterst	-6270
▁Friedens	-6271
▁commercial	-6272
▁entspricht	-6273
bung	-6274
▁jähr	-6275
▁says	-6276
▁Beruf	-6277
▁targe	-6278
▁apprec	-6279
▁strict	-6280
▁adoption	-6281
).	-6282
mm	-6283
Ver	-6284
aussch	-6285
ierter	-6286
▁Luxem	-6287
▁Christ	-6288
▁beginnen	-6289
▁grenzüber	-6290
to	-6291
▁jur	-6292
iveau	-6293
▁drawn	-6294
▁nennen	-6295
▁Leitlinien	-6296
▁ausdrücklich	-6297
▁Kü	-6298
▁Nah	-6299
▁Pet	-6300
▁auszu	-6301
▁Schritte	-6302
▁Vereinbarung	-6303
▁rac	-6304
ederal	-6305
▁learn	-6306
▁Hinter	-6307
▁spezif	-6308
▁kontroll	-6309
▁Pak	-6310
▁laid	-6311
izienz	-6312
mittag	-6313
▁lösen	-6314
▁Januar	-6315
▁überein	-6316
▁bilateral	-6317
▁unternommen	-6318
▁bill	-6319
▁Heute	-6320
▁Beschlüsse	-6321
▁31	-6322
auen	-6323
igital	-6324
▁Hohen	-6325
AP	-6326
▁anders	-6327
▁Aktionen	-6328
▁Moreover	-6329
▁becoming	-6330
▁betroffenen	-6331
▁1996	-6332
ranted	-6333
▁keines	-6334
▁benefits	-6335
▁informed	-6336
▁speakers	-6337
reck	-6338
▁calls	-6339
▁quant	-6340
▁raise	-6341
▁konkret	-6342
zeichnung	-6343
▁function	-6344
▁derzeitigen	-6345
▁Vorbereitung	-6346
COM	-6347
iell	-6348
inced	-6349
jected	-6350
undert	-6351
▁helfen	-6352
▁introduced	-6353
▁Berücksicht	-6354
läut	-6355
öder	-6356
▁har	-6357
▁ähn	-6358
ensus	-6359
▁Sach	-6360
▁manufact	-6361
vere	-6362
licht	-6363
▁Erwä	-6364
▁Wunsch	-6365
▁attempt	-6366
▁exactly	-6367
▁Wiederauf	-6368
▁Rechtsgrundlage	-6369
ina	-6370
uth	-6371
ören	-6372
zedon	-6373
▁arres	-6374
▁einver	-6375
▁former	-6376
▁unemployment	-6377
▁tele	-6378
▁Never	-6379
▁front	-6380
▁disapp	-6381
▁einzus	-6382
▁ganzen	-6383
▁supply	-6384
▁Industr	-6385
▁inspect	-6386
▁methods	-6387
▁gegenseit	-6388
▁comprehens	-6389
rete	-6390
weist	-6391
▁Beob	-6392
▁temp	-6393
itious	-6394
▁ergriffen	-6395
▁Volksgesundheit	-6396
räge	-6397
acter	-6398
▁Klar	-6399
▁hour	-6400
▁Funds	-6401
▁Balkan	-6402
▁vielmehr	-6403
▁Verbindung	-6404
▁Rass	-6405
▁Krank	-6406
istence	-6407
▁Polize	-6408
▁Bü	-6409
▁Acc	-6410
/1999	-6411
liegt	-6412
▁Alle	-6413
▁direkt	-6414
▁Gegenteil	-6415
▁sämtliche	-6416
feld	-6417
imal	-6418
indern	-6419
▁bietet	-6420
▁letzte	-6421
ürk	-6422
jähr	-6423
▁Lat	-6424
ished	-6425
▁Höhe	-6426
▁fulf	-6427
▁Rules	-6428
▁Bereit	-6429
▁Middle	-6430
▁univers	-6431
▁technischen	-6432
▁hop	-6433
rated	-6434
▁March	-6435
▁wants	-6436
▁Italien	-6437
▁keinerlei	-6438
▁90	-6439
iedr	-6440
amber	-6441
▁Leist	-6442
▁Familien	-6443
▁convinced	-6444
▁employees	-6445
▁möglicherweise	-6446
dra	-6447
acco	-6448
inter	-6449
▁wollte	-6450
▁Schweden	-6451
▁addressed	-6452
uls	-6453
▁Hil	-6454
ifying	-6455
▁parts	-6456
▁Verständ	-6457
▁Gleichzeitig	-6458
50	-6459
▁anwes	-6460
igrants	-6461
▁Fremden	-6462
vo	-6463
prüft	-6464
▁Italy	-6465
▁klare	-6466
▁Subsid	-6467
▁Mindest	-6468
▁Sprache	-6469
▁handeln	-6470
▁emphasise	-6471
30	-6472
lines	-6473
gerung	-6474
sprogram	-6475
▁improved	-6476
▁Priorität	-6477
▁Deutschland	-6478
▁Vermittlungs	-6479
▁andererseits	-6480
ording	-6481
gewicht	-6482
möglich	-6483
▁Struct	-6484
▁Verträge	-6485
▁Verhalten	-6486
▁achieving	-6487
▁safeguard	-6488
▁Grundsätze	-6489
▁schwedischen	-6490
▁Osten	-6491
▁bringt	-6492
▁Gebiete	-6493
▁Einigung	-6494
▁Spe	-6495
▁prä	-6496
▁Tele	-6497
▁geäuß	-6498
▁übern	-6499
▁Medien	-6500
▁Beitritt	-6501
▁Funktion	-6502
▁introduce	-6503
▁Structural	-6504
▁Diskriminierung	-6505
iders	-6506
called	-6507
▁Krisen	-6508
▁forget	-6509
▁verurs	-6510
▁Nevertheless	-6511
▁arm	-6512
▁sea	-6513
▁März	-6514
▁kaum	-6515
▁listen	-6516
▁character	-6517
▁involving	-6518
KOM	-6519
tei	-6520
val	-6521
enze	-6522
hebung	-6523
höhung	-6524
▁Ihren	-6525
▁Tiere	-6526
▁zudem	-6527
▁garant	-6528
▁positions	-6529
▁diskutiert	-6530
▁Erfahrungen	-6531
▁gewährleistet	-6532
▁Harmonisierung	-6533
▁bad	-6534
▁announ	-6535
▁structure	-6536
▁Unfortunately	-6537
order	-6538
▁Legal	-6539
▁verme	-6540
▁Gewähr	-6541
etheless	-6542
▁profess	-6543
▁perspect	-6544
▁verfolgt	-6545
sper	-6546
▁rise	-6547
brauch	-6548
▁sechs	-6549
▁nunmehr	-6550
ronic	-6551
▁nimmt	-6552
▁Indeed	-6553
▁behandeln	-6554
▁sensitive	-6555
▁establishment	-6556
▁recommendations	-6557
IP	-6558
onia	-6559
▁Fore	-6560
▁foot	-6561
iarity	-6562
▁exper	-6563
▁repeat	-6564
▁Kontroll	-6565
▁meetings	-6566
▁immediately	-6567
▁lay	-6568
▁lauf	-6569
ournal	-6570
▁Tabak	-6571
▁Trade	-6572
▁actual	-6573
riminalität	-6574
▁recommendation	-6575
äum	-6576
▁türk	-6577
bürger	-6578
unsten	-6579
▁merely	-6580
▁bekräft	-6581
▁beteiligt	-6582
▁politischer	-6583
▁zuständigen	-6584
mä	-6585
aret	-6586
ival	-6587
stag	-6588
wart	-6589
▁shows	-6590
▁wünschen	-6591
▁Abschluss	-6592
▁Nur	-6593
imately	-6594
▁Chance	-6595
leistung	-6596
▁Foreign	-6597
▁kompliz	-6598
▁konstru	-6599
▁outcome	-6600
▁befassen	-6601
▁hervorge	-6602
/01)	-6603
tritt	-6604
▁bein	-6605
▁hoff	-6606
erungs	-6607
▁Wahlen	-6608
▁launch	-6609
atur	-6610
▁tob	-6611
ancen	-6612
▁rech	-6613
▁After	-6614
▁Todes	-6615
▁forth	-6616
▁Schwer	-6617
▁fallen	-6618
▁unable	-6619
▁Italian	-6620
▁calling	-6621
▁Geschichte	-6622
NS	-6623
oul	-6624
▁Ev	-6625
spekt	-6626
▁chem	-6627
respon	-6628
▁demonst	-6629
▁Although	-6630
strö	-6631
▁amt	-6632
▁mob	-6633
setzt	-6634
▁Proced	-6635
▁einschließlich	-6636
▁26	-6637
▁80	-6638
halte	-6639
▁mitt	-6640
▁eigene	-6641
▁Kingdom	-6642
▁tobacco	-6643
▁Mitarbeit	-6644
▁consensus	-6645
▁geschieht	-6646
▁künftigen	-6647
▁Tun	-6648
▁empf	-6649
▁Feira	-6650
▁beige	-6651
▁ideas	-6652
▁glauben	-6653
▁granted	-6654
▁Engagement	-6655
▁Vorschlags	-6656
apt	-6657
▁NG	-6658
afft	-6659
ktors	-6660
▁situ	-6661
▁Fälle	-6662
▁Mobil	-6663
▁Garant	-6664
▁asking	-6665
▁divers	-6666
▁Aktionsp	-6667
▁Eindruck	-6668
▁hervorragen	-6669
▁demokratische	-6670
sto	-6671
itzen	-6672
vergen	-6673
▁formal	-6674
ventions	-6675
ari	-6676
▁Umst	-6677
räsent	-6678
werten	-6679
▁hohen	-6680
▁factor	-6681
▁elements	-6682
▁Griechenland	-6683
▁contains	-6684
akter	-6685
▁carr	-6686
▁genug	-6687
▁appeal	-6688
▁ausreichend	-6689
vi	-6690
COS	-6691
eben	-6692
▁Flexib	-6693
▁Hauses	-6694
▁excess	-6695
▁schützen	-6696
▁Politiken	-6697
▁Subsidiar	-6698
▁betreffend	-6699
▁ehem	-6700
igaret	-6701
▁prior	-6702
absicht	-6703
▁Verbot	-6704
▁wishes	-6705
▁Freiheiten	-6706
▁recognised	-6707
iste	-6708
▁Ist	-6709
▁fle	-6710
konom	-6711
▁ausges	-6712
▁critical	-6713
▁reducing	-6714
▁Procedure	-6715
either	-6716
auftrag	-6717
▁burden	-6718
▁history	-6719
▁perfect	-6720
▁versich	-6721
▁Anspruch	-6722
▁ambitious	-6723
▁Erklärungen	-6724
▁Globalisierung	-6725
try	-6726
bild	-6727
mium	-6728
▁Can	-6729
▁Mai	-6730
▁Green	-6731
▁beings	-6732
▁balanced	-6733
▁vorlegen	-6734
▁supporting	-6735
▁genet	-6736
▁welcom	-6737
▁grundsätz	-6738
▁konzentrieren	-6739
▁gek	-6740
▁suc	-6741
▁Lauf	-6742
▁weap	-6743
▁withdra	-6744
▁einverstanden	-6745
▁usw	-6746
▁coll	-6747
istics	-6748
▁begrenz	-6749
▁Liste	-6750
▁Gruppe	-6751
▁higher	-6752
▁Bemerkung	-6753
▁subsidiarity	-6754
▁verschiedene	-6755
bry	-6756
spe	-6757
▁herz	-6758
▁Problemen	-6759
▁Angesichts	-6760
▁parlamentar	-6761
kret	-6762
gruppe	-6763
▁Stimme	-6764
▁reserv	-6765
▁enterpr	-6766
▁Lösungen	-6767
▁evidence	-6768
▁sinnvoll	-6769
▁criticism	-6770
▁verbessert	-6771
▁Zuständigkeit	-6772
▁außerordentlich	-6773
künd	-6774
▁Abstimm	-6775
▁Weißbuch	-6776
scheinlich	-6777
▁Besorgnis	-6778
▁competitive	-6779
zub	-6780
urally	-6781
▁italien	-6782
▁weshalb	-6783
▁Drittens	-6784
▁constant	-6785
▁influence	-6786
▁vermeiden	-6787
▁statements	-6788
▁resolutions	-6789
▁tät	-6790
▁Beam	-6791
estens	-6792
▁border	-6793
▁attitude	-6794
▁enormous	-6795
jekt	-6796
hafte	-6797
▁Wege	-6798
▁gesetz	-6799
▁Rassismus	-6800
onn	-6801
▁deg	-6802
▁Bestand	-6803
▁Spanien	-6804
forderung	-6805
▁Kollegin	-6806
▁besondere	-6807
▁near	-6808
▁Today	-6809
▁ignor	-6810
▁Consum	-6811
▁Faktor	-6812
▁Worten	-6813
▁behaup	-6814
▁chance	-6815
▁Erhöhung	-6816
▁Produkte	-6817
▁territor	-6818
asten	-6819
gentur	-6820
▁dynam	-6821
▁höher	-6822
▁cooper	-6823
0)	-6824
/01):	-6825
alyse	-6826
▁rele	-6827
▁board	-6828
▁Balkans	-6829
▁Vorgehen	-6830
▁teilweise	-6831
oted	-6832
inary	-6833
▁chair	-6834
▁radio	-6835
▁dienen	-6836
▁erweit	-6837
▁Gruppen	-6838
▁gleiche	-6839
▁regionalen	-6840
inding	-6841
▁Gründe	-6842
▁bilden	-6843
▁ehemal	-6844
▁mittel	-6845
▁erk	-6846
esearch	-6847
istisch	-6848
▁closer	-6849
▁politisch	-6850
▁producers	-6851
▁betrachtet	-6852
▁globalisation	-6853
sprü	-6854
ünde	-6855
urely	-6856
kontrolle	-6857
▁combating	-6858
▁Veränderungen	-6859
▁Ara	-6860
leiten	-6861
▁rasch	-6862
▁comply	-6863
zwischen	-6864
▁erfüllt	-6865
▁zweifellos	-6866
▁geschlossen	-6867
möglichkeiten	-6868
▁u	-6869
▁Eing	-6870
▁unbe	-6871
▁ahead	-6872
▁aufzu	-6873
▁arrange	-6874
▁Research	-6875
bekämpfung	-6876
berwachung	-6877
▁differences	-6878
fält	-6879
▁quot	-6880
▁Kapital	-6881
▁debates	-6882
▁Maßnahme	-6883
▁gelangen	-6884
▁gelungen	-6885
otechnolog	-6886
▁Vergleich	-6887
▁flexibility	-6888
▁fä	-6889
angs	-6890
berprü	-6891
▁block	-6892
▁degree	-6893
▁Versuch	-6894
▁concentr	-6895
▁abgeschlossen	-6896
ente	-6897
ized	-6898
üter	-6899
▁ged	-6900
anten	-6901
verse	-6902
ündet	-6903
▁Kohäs	-6904
▁Wicht	-6905
▁inten	-6906
▁works	-6907
▁Willen	-6908
▁letter	-6909
▁detailed	-6910
▁Parlamente	-6911
oke	-6912
gänz	-6913
samm	-6914
pping	-6915
▁Iran	-6916
▁komme	-6917
▁Schluß	-6918
▁prefer	-6919
▁adopting	-6920
▁conclude	-6921
▁concrete	-6922
ef	-6923
orre	-6924
▁Aud	-6925
ommer	-6926
▁Erika	-6927
▁sonst	-6928
▁Rechnung	-6929
▁vorzulegen	-6930
len	-6931
▁Gal	-6932
uerung	-6933
▁media	-6934
▁rural	-6935
ugoslaw	-6936
▁elected	-6937
▁transfer	-6938
licherweise	-6939
▁Stabilitäts	-6940
CP	-6941
cyc	-6942
▁Sinn	-6943
▁send	-6944
▁Leider	-6945
▁Thirdly	-6946
▁covered	-6947
▁interpret	-6948
▁2,	-6949
uber	-6950
▁uni	-6951
ausschuß	-6952
▁putting	-6953
▁succeed	-6954
▁Bedenken	-6955
▁electronic	-6956
▁opposition	-6957
▁gratulieren	-6958
▁pub	-6959
losen	-6960
▁Betr	-6961
▁Maced	-6962
▁surpr	-6963
▁exercise	-6964
▁aufgefordert	-6965
ehm	-6966
inent	-6967
▁added	-6968
▁aktiv	-6969
▁veran	-6970
▁Risiko	-6971
▁affairs	-6972
▁außerhalb	-6973
schaftliche	-6974
▁efficiency	-6975
eind	-6976
ünden	-6977
▁abgele	-6978
ifizierung	-6979
▁akzeptiert	-6980
RO	-6981
▁moder	-6982
▁round	-6983
▁Lastly	-6984
▁desire	-6985
▁grounds	-6986
▁übrigens	-6987
▁conciliation	-6988
orgt	-6989
uter	-6990
▁2006	-6991
▁told	-6992
▁neben	-6993
okraten	-6994
▁explain	-6995
▁beträcht	-6996
▁According	-6997
▁Democrats	-6998
▁Infrastruktur	-6999
EG	-7000
besch	-7001
▁vorge	-7002
▁simple	-7003
▁Milliar	-7004
▁involve	-7005
▁hervorheben	-7006
Be	-7007
uff	-7008
fühl	-7009
igne	-7010
ances	-7011
itory	-7012
▁noise	-7013
▁Umfang	-7014
▁größten	-7015
▁Treaties	-7016
▁building	-7017
fiz	-7018
äss	-7019
uchen	-7020
▁Even	-7021
▁happy	-7022
▁digital	-7023
▁erzielen	-7024
▁geograph	-7025
▁mus	-7026
▁Mand	-7027
stoffe	-7028
ungsbe	-7029
▁finde	-7030
▁niedr	-7031
▁Monate	-7032
osen	-7033
▁renew	-7034
▁Punkten	-7035
▁unterstütze	-7036
▁comprehensive	-7037
▁Tour	-7038
(2000)	-7039
spolit	-7040
▁deleg	-7041
▁heart	-7042
▁depend	-7043
▁größer	-7044
▁persönlich	-7045
ruh	-7046
asse	-7047
ingt	-7048
heits	-7049
▁came	-7050
▁erwähn	-7051
▁Chancen	-7052
richtlinie	-7053
▁dimension	-7054
▁entwickelt	-7055
▁structures	-7056
lang	-7057
▁Kat	-7058
front	-7059
▁mist	-7060
asbourg	-7061
▁Mechan	-7062
▁Dienste	-7063
▁climate	-7064
ric	-7065
zust	-7066
▁Verfahrens	-7067
fahrt	-7068
zeuge	-7069
▁worked	-7070
▁seitens	-7071
▁Realität	-7072
wahl	-7073
ählen	-7074
▁jetz	-7075
▁shar	-7076
border	-7077
ittees	-7078
▁Berat	-7079
▁signed	-7080
▁Mazedon	-7081
KP	-7082
ilst	-7083
▁197	-7084
▁zuk	-7085
▁auff	-7086
▁erör	-7087
assend	-7088
itable	-7089
▁Zweck	-7090
▁remov	-7091
▁Mensch	-7092
▁related	-7093
ingeschrän	-7094
Gen	-7095
▁floor	-7096
▁fulfil	-7097
▁äußern	-7098
▁Security	-7099
▁naturally	-7100
▁strategic	-7101
▁0	-7102
▁Ins	-7103
▁easy	-7104
schlag	-7105
richten	-7106
ugnisse	-7107
▁Einige	-7108
▁anderes	-7109
▁strongly	-7110
▁financing	-7111
▁Ereignisse	-7112
akte	-7113
bestimm	-7114
▁conduct	-7115
▁erklären	-7116
▁supports	-7117
▁situations	-7118
CNS	-7119
ury	-7120
▁zut	-7121
▁votes	-7122
▁umwelt	-7123
stellungen	-7124
▁carefully	-7125
▁uneingeschrän	-7126
the	-7127
ibet	-7128
▁Bos	-7129
▁cal	-7130
▁unf	-7131
▁Ents	-7132
▁destro	-7133
tendlich	-7134
▁territory	-7135
▁harmonisation	-7136
5,	-7137
▁Mir	-7138
▁Dann	-7139
▁Prime	-7140
▁bieten	-7141
▁gewisse	-7142
▁Strasbourg	-7143
▁jeweiligen	-7144
▁Umweltfragen	-7145
▁representative	-7146
lemente	-7147
▁Berlin	-7148
▁Fehler	-7149
▁bezieht	-7150
▁zukünft	-7151
▁weiterer	-7152
▁emissions	-7153
ungsbereich	-7154
▁zusätzliche	-7155
itet	-7156
läuf	-7157
▁acts	-7158
▁gebe	-7159
▁lines	-7160
▁Konflik	-7161
▁integrated	-7162
aßt	-7163
cement	-7164
reitet	-7165
werber	-7166
lexible	-7167
▁dennoch	-7168
▁Agricult	-7169
▁Kandidaten	-7170
▁nachhaltige	-7171
▁Voraussetzungen	-7172
rep	-7173
▁Rel	-7174
▁don	-7175
embly	-7176
▁Klim	-7177
▁hält	-7178
▁wach	-7179
brigen	-7180
▁Nutzen	-7181
▁obligations	-7182
▁ult	-7183
▁Heim	-7184
▁Trans	-7185
General	-7186
▁limits	-7187
▁record	-7188
▁Subject	-7189
▁resolve	-7190
▁Personal	-7191
SP	-7192
▁29	-7193
▁70	-7194
▁Eigen	-7195
systeme	-7196
▁Russia	-7197
▁superv	-7198
▁publish	-7199
▁officials	-7200
▁verwendet	-7201
berlegungen	-7202
▁Kontrollen	-7203
▁impossible	-7204
▁Flüchtlinge	-7205
itel	-7206
scht	-7207
zone	-7208
▁Bew	-7209
▁stär	-7210
▁Warum	-7211
▁bureau	-7212
▁choice	-7213
▁Agentur	-7214
▁Konsult	-7215
▁payments	-7216
▁represents	-7217
▁umfassende	-7218
▁declaration	-7219
▁entschlossen	-7220
iban	-7221
oler	-7222
greif	-7223
ology	-7224
ärkten	-7225
▁Hause	-7226
▁figures	-7227
▁fordere	-7228
▁entirely	-7229
▁gestalten	-7230
▁Bemerkungen	-7231
utr	-7232
▁Got	-7233
▁ECHO	-7234
▁beiz	-7235
▁Chamber	-7236
▁continuing	-7237
umb	-7238
▁See	-7239
▁Why	-7240
▁Voll	-7241
ündung	-7242
▁Alban	-7243
▁Ander	-7244
▁defend	-7245
▁Dennoch	-7246
▁aussprechen	-7247
▁Anforderungen	-7248
▁infrastructure	-7249
▁arms	-7250
▁kürz	-7251
wiesen	-7252
▁2000,	-7253
▁Tagen	-7254
▁occup	-7255
▁volle	-7256
▁Presse	-7257
▁prison	-7258
▁sofort	-7259
schiedet	-7260
▁gezeigt	-7261
▁opposed	-7262
▁transition	-7263
▁ga	-7264
erten	-7265
esten	-7266
▁facilit	-7267
▁Hoffnung	-7268
▁disaster	-7269
▁includes	-7270
▁original	-7271
▁beabsicht	-7272
▁immigrants	-7273
▁Fortschritt	-7274
▁Drittländern	-7275
▁contributions	-7276
▁Mc	-7277
tering	-7278
▁falls	-7279
▁Altern	-7280
▁appears	-7281
▁persons	-7282
▁Betrifft	-7283
▁entstehen	-7284
▁zahlreichen	-7285
▁ausschließlich	-7286
▁err	-7287
▁sla	-7288
▁setzt	-7289
▁tasks	-7290
▁länger	-7291
▁eingele	-7292
▁managed	-7293
▁vorbereit	-7294
▁verabschiedet	-7295
▁sw	-7296
leun	-7297
▁Oct	-7298
▁Blick	-7299
▁beide	-7300
▁simpl	-7301
▁Aufbau	-7302
▁Angriff	-7303
▁Verletz	-7304
▁absolut	-7305
▁betrachten	-7306
▁einbezogen	-7307
▁reasonable	-7308
▁AKP	-7309
▁Urs	-7310
▁sagt	-7311
rokrat	-7312
▁Trotz	-7313
▁occur	-7314
entwurf	-7315
▁attacks	-7316
▁deliver	-7317
▁Entlastung	-7318
▁nationaler	-7319
▁Minderheiten	-7320
▁Voraussetzung	-7321
schäd	-7322
uropa	-7323
ighbour	-7324
▁Formen	-7325
▁systemat	-7326
▁ACP	-7327
▁office	-7328
▁Konsequ	-7329
▁adequate	-7330
▁anwesend	-7331
▁Arbeitsmarkt	-7332
▁Anp	-7333
allel	-7334
handels	-7335
ugoslav	-7336
▁series	-7337
laubwürd	-7338
▁contact	-7339
▁Consumer	-7340
▁equality	-7341
▁Pap	-7342
▁jem	-7343
▁Alli	-7344
▁slow	-7345
▁entit	-7346
tellten	-7347
▁implic	-7348
▁fordert	-7349
▁Herkunft	-7350
▁greatest	-7351
▁Dimension	-7352
▁advantage	-7353
▁neighbour	-7354
va	-7355
issens	-7356
kosten	-7357
▁mutual	-7358
▁controls	-7359
▁Partnerschaft	-7360
)).	-7361
▁arr	-7362
gemäß	-7363
sized	-7364
▁cust	-7365
ulated	-7366
▁Prüfung	-7367
▁ständig	-7368
▁annehmen	-7369
berzeugung	-7370
▁proposing	-7371
▁ausgesprochen	-7372
ork	-7373
▁Sign	-7374
▁harm	-7375
schefs	-7376
▁defined	-7377
▁Währungs	-7378
▁erkennen	-7379
▁speziell	-7380
▁zugunsten	-7381
▁Verbrechen	-7382
▁won	-7383
▁Iraq	-7384
▁Many	-7385
▁NGOs	-7386
▁excl	-7387
sequent	-7388
▁Risiken	-7389
▁appropriations	-7390
üsse	-7391
iffer	-7392
orary	-7393
älter	-7394
▁tour	-7395
▁Fonds	-7396
ermaßen	-7397
▁seeking	-7398
▁competit	-7399
DS	-7400
bod	-7401
▁37	-7402
ales	-7403
wäss	-7404
▁hohe	-7405
▁drugs	-7406
▁moral	-7407
▁perman	-7408
▁technische	-7409
▁rapporteurs	-7410
▁Wissenschaft	-7411
AR	-7412
-200	-7413
itime	-7414
▁sehe	-7415
▁Arbeiten	-7416
▁Botschaft	-7417
▁Umweltschutz	-7418
▁arrangements	-7419
▁enj	-7420
▁Finn	-7421
▁erläut	-7422
▁proposes	-7423
▁supplement	-7424
▁aufzunehmen	-7425
zul	-7426
acio	-7427
schw	-7428
fällen	-7429
▁optim	-7430
▁regel	-7431
▁Afrika	-7432
▁Anteil	-7433
▁maximum	-7434
▁nachdem	-7435
▁reduced	-7436
▁größeren	-7437
▁occasions	-7438
▁unabhängig	-7439
▁involvement	-7440
uli	-7441
iate	-7442
▁plen	-7443
ateful	-7444
▁aimed	-7445
▁angeb	-7446
▁stabil	-7447
▁treten	-7448
▁niemand	-7449
▁promoting	-7450
▁britischen	-7451
MU	-7452
uk	-7453
äden	-7454
▁etc	-7455
▁Dafür	-7456
▁Jetzt	-7457
▁Konzept	-7458
▁opening	-7459
▁constructive	-7460
-,	-7461
gef	-7462
▁pal	-7463
tedly	-7464
▁aims	-7465
▁claim	-7466
▁legen	-7467
▁failure	-7468
▁plenary	-7469
▁Monetary	-7470
▁interven	-7471
▁pensions	-7472
▁Programms	-7473
▁Straßburg	-7474
▁positiven	-7475
▁besonderen	-7476
▁guarantees	-7477
▁Gerichtshof	-7478
▁communities	-7479
AT	-7480
üß	-7481
▁Moment	-7482
▁dürfte	-7483
▁genere	-7484
reichung	-7485
▁amongst	-7486
▁erfolgreich	-7487
▁Unterschiede	-7488
schn	-7489
klang	-7490
▁Meer	-7491
▁trägt	-7492
▁Besonder	-7493
▁jüngsten	-7494
▁committees	-7495
▁mechanisms	-7496
▁Sk	-7497
ördert	-7498
▁Beweis	-7499
▁einger	-7500
▁erfahren	-7501
ürf	-7502
▁dre	-7503
otion	-7504
▁Nahen	-7505
▁Vitor	-7506
▁offiz	-7507
▁racism	-7508
programm	-7509
▁Palacio	-7510
▁operations	-7511
▁interesting	-7512
▁understanding	-7513
ragt	-7514
▁abg	-7515
▁lost	-7516
▁tool	-7517
lichung	-7518
▁Ferner	-7519
▁vertra	-7520
▁getting	-7521
▁Gedanken	-7522
▁Unabhäng	-7523
▁Landwirte	-7524
▁unterstreichen	-7525
geiz	-7526
▁unc	-7527
altet	-7528
▁enor	-7529
ikations	-7530
▁Effizienz	-7531
▁evaluation	-7532
▁Ro	-7533
▁NRO	-7534
▁cle	-7535
kolog	-7536
▁ones	-7537
atoren	-7538
▁geeigne	-7539
▁abgelehnt	-7540
▁verstärkt	-7541
▁professional	-7542
):	-7543
kra	-7544
▁pill	-7545
▁freien	-7546
▁Freedom	-7547
▁weapons	-7548
▁flexible	-7549
▁happening	-7550
▁unmittelbar	-7551
▁competitiveness	-7552
DR	-7553
ES	-7554
▁Akte	-7555
▁Post	-7556
atever	-7557
▁Freiz	-7558
▁letzt	-7559
▁trust	-7560
endence	-7561
▁October	-7562
▁regular	-7563
▁Einfluss	-7564
▁Mazedonien	-7565
▁Verständnis	-7566
▁ausgezeichneten	-7567
oking	-7568
▁Juli	-7569
cision	-7570
▁causes	-7571
▁Element	-7572
▁erfolgt	-7573
▁Widerspruch	-7574
mar	-7575
uck	-7576
reib	-7577
▁Ord	-7578
erous	-7579
fähig	-7580
▁Behin	-7581
▁Offen	-7582
▁enfor	-7583
▁gerne	-7584
▁timet	-7585
▁truly	-7586
▁einerseits	-7587
▁vollständig	-7588
▁Diskussionen	-7589
▁nachdrücklich	-7590
des	-7591
▁fern	-7592
▁defic	-7593
▁bemüht	-7594
▁Budgets	-7595
▁solcher	-7596
▁grateful	-7597
▁starting	-7598
▁practices	-7599
▁vorgesehenen	-7600
apan	-7601
stat	-7602
▁adapt	-7603
▁lower	-7604
▁reden	-7605
▁attend	-7606
▁Fischler	-7607
▁3,	-7608
▁mil	-7609
iable	-7610
kohol	-7611
▁Schwe	-7612
▁braucht	-7613
▁designed	-7614
▁instance	-7615
▁rejected	-7616
▁gesellschaft	-7617
Vert	-7618
nahm	-7619
tete	-7620
▁pun	-7621
▁kleine	-7622
▁Vitorino	-7623
berprüfung	-7624
▁expression	-7625
▁vorgelegten	-7626
▁Herausforderung	-7627
▁July	-7628
▁sole	-7629
▁erfre	-7630
▁Straft	-7631
abilität	-7632
▁Vorhaben	-7633
▁otherwise	-7634
▁internationaler	-7635
reb	-7636
▁Swo	-7637
▁Dring	-7638
▁Swobod	-7639
▁angeht	-7640
▁attach	-7641
▁betont	-7642
▁Einwander	-7643
▁delighted	-7644
▁geltenden	-7645
▁Vielleicht	-7646
▁spanischen	-7647
▁Agriculture	-7648
▁participate	-7649
mann	-7650
uble	-7651
uption	-7652
▁Jahrh	-7653
▁ausger	-7654
▁prospect	-7655
▁gegebenen	-7656
sman	-7657
▁Ben	-7658
▁Mus	-7659
▁Okt	-7660
▁reiter	-7661
▁Swoboda	-7662
▁bureauc	-7663
▁courage	-7664
▁Auditors	-7665
▁monetary	-7666
▁forthcoming	-7667
▁Em	-7668
▁exec	-7669
▁zeit	-7670
wirkung	-7671
▁closed	-7672
▁Oktober	-7673
▁politic	-7674
▁zufolge	-7675
▁presence	-7676
▁letztendlich	-7677
▁ey	-7678
ties	-7679
ungsan	-7680
▁coast	-7681
▁Einklang	-7682
▁Milliarden	-7683
▁Verfassung	-7684
15	-7685
▁EG	-7686
▁Mex	-7687
isted	-7688
▁goal	-7689
zielle	-7690
▁serve	-7691
▁compar	-7692
▁passen	-7693
ustausch	-7694
▁thousands	-7695
ille	-7696
schm	-7697
▁frag	-7698
haften	-7699
▁Phase	-7700
▁Welche	-7701
▁mandate	-7702
▁Europäer	-7703
▁families	-7704
▁vehicles	-7705
▁Verhältnis	-7706
▁notwendige	-7707
▁spent	-7708
▁vorzu	-7709
▁Ebenso	-7710
▁Patent	-7711
▁denken	-7712
▁realise	-7713
▁approval	-7714
▁generally	-7715
▁wesentliche	-7716
ano	-7717
rey	-7718
igor	-7719
pped	-7720
▁Col	-7721
▁Comp	-7722
▁beef	-7723
kungen	-7724
▁voran	-7725
▁belong	-7726
▁daraus	-7727
▁facing	-7728
▁Kindern	-7729
▁occasion	-7730
handlungen	-7731
▁challenges	-7732
zi	-7733
...	-7734
hab	-7735
▁ec	-7736
▁Bush	-7737
▁Trag	-7738
▁Greek	-7739
steller	-7740
▁forced	-7741
▁geändert	-7742
▁compensation	-7743
fare	-7744
▁Grü	-7745
ildet	-7746
▁loss	-7747
▁Stoffe	-7748
▁Systems	-7749
▁bedauer	-7750
▁ergeben	-7751
▁entscheid	-7752
▁enterprises	-7753
öp	-7754
reche	-7755
▁Home	-7756
▁nahe	-7757
▁soeben	-7758
▁binding	-7759
▁mehreren	-7760
▁Nahrungsmittel	-7761
cent	-7762
wide	-7763
▁Ann	-7764
▁mag	-7765
▁Mich	-7766
▁grie	-7767
erring	-7768
selben	-7769
wiegen	-7770
▁Ihrem	-7771
fleisch	-7772
gencies	-7773
▁Normen	-7774
▁income	-7775
mitglied	-7776
▁targets	-7777
sequently	-7778
▁übernommen	-7779
▁Hintergrund	-7780
▁eingereicht	-7781
bereinstimmung	-7782
▁Dringlichkeit	-7783
▁IC	-7784
sson	-7785
unruh	-7786
atters	-7787
▁diplom	-7788
▁failed	-7789
▁gelöst	-7790
▁genutzt	-7791
▁Anfragen	-7792
▁conflicts	-7793
▁verantwortlich	-7794
chst	-7795
▁Jed	-7796
▁Abend	-7797
▁vorange	-7798
▁bringing	-7799
anda	-7800
lüssel	-7801
▁umfang	-7802
standing	-7803
▁Produkt	-7804
▁growing	-7805
▁verteid	-7806
▁besseren	-7807
▁followed	-7808
staatlichen	-7809
▁distribution	-7810
▁nachhaltigen	-7811
gesellschaften	-7812
▁ras	-7813
kommt	-7814
▁alco	-7815
aution	-7816
▁advoc	-7817
▁subst	-7818
▁Renten	-7819
▁changed	-7820
▁perform	-7821
▁spricht	-7822
▁planning	-7823
▁schwierigen	-7824
▁vorliegende	-7825
▁vorgeschlagene	-7826
▁Kore	-7827
▁deli	-7828
▁gave	-7829
▁hund	-7830
spunkt	-7831
fassung	-7832
▁travel	-7833
▁begrüßt	-7834
▁Vielfalt	-7835
▁beziehen	-7836
▁anerkannt	-7837
▁insurance	-7838
▁reagieren	-7839
▁eingeführt	-7840
▁betreffenden	-7841
▁amerikanischen	-7842
ua	-7843
ibed	-7844
▁Akt	-7845
▁inte	-7846
▁2000.	-7847
▁manage	-7848
levision	-7849
▁Analyse	-7850
▁Behörde	-7851
▁Revision	-7852
wel	-7853
elbe	-7854
▁münd	-7855
anging	-7856
▁Heimat	-7857
▁anyone	-7858
▁genannt	-7859
▁started	-7860
▁thereby	-7861
▁purposes	-7862
▁sensible	-7863
▁erfordert	-7864
▁wahrscheinlich	-7865
2,	-7866
▁fü	-7867
▁Mart	-7868
▁Only	-7869
▁Wats	-7870
innock	-7871
▁obligation	-7872
qual	-7873
reben	-7874
▁fried	-7875
▁Kinnock	-7876
▁intends	-7877
▁wichtiges	-7878
▁kulturellen	-7879
▁vorgenommen	-7880
▁Regierungschefs	-7881
occ	-7882
olk	-7883
attet	-7884
▁late	-7885
▁Watson	-7886
▁leading	-7887
▁diesbezü	-7888
▁herzlich	-7889
▁wiederholen	-7890
uell	-7891
chsel	-7892
inner	-7893
sibly	-7894
▁1999,	-7895
▁meant	-7896
▁visit	-7897
▁ökolog	-7898
▁Rentner	-7899
▁zuletzt	-7900
▁consolid	-7901
versorgung	-7902
▁Kriminalität	-7903
▁constitutional	-7904
EU	-7905
ai	-7906
eine	-7907
▁Sen	-7908
▁dro	-7909
▁wit	-7910
sucht	-7911
▁ports	-7912
▁range	-7913
▁erhöhen	-7914
▁factors	-7915
beauftrag	-7916
▁konstrukt	-7917
▁palästinens	-7918
▁Cy	-7919
zent	-7920
▁hours	-7921
uführen	-7922
▁Vielen	-7923
▁respekt	-7924
▁wenigen	-7925
▁Europeans	-7926
▁Petitions	-7927
▁requirement	-7928
▁kl	-7929
abor	-7930
reis	-7931
▁500	-7932
▁Kle	-7933
ather	-7934
teten	-7935
▁elim	-7936
strafe	-7937
▁Erwart	-7938
▁complain	-7939
▁vir	-7940
endum	-7941
▁decis	-7942
▁Zusatz	-7943
▁custom	-7944
▁evening	-7945
▁bekämpfen	-7946
▁anschließen	-7947
olz	-7948
stac	-7949
▁Gel	-7950
▁wide	-7951
▁Islam	-7952
ventionen	-7953
▁Macedonia	-7954
▁accidents	-7955
▁verweisen	-7956
▁informiert	-7957
▁Flexibilität	-7958
▁Vereinbarungen	-7959
▁Tal	-7960
tehen	-7961
▁mill	-7962
▁thre	-7963
orough	-7964
▁Japan	-7965
▁neues	-7966
angehör	-7967
▁gewalt	-7968
▁submit	-7969
▁Charakter	-7970
▁suffering	-7971
▁individuals	-7972
täus	-7973
▁From	-7974
▁Head	-7975
▁präz	-7976
▁knows	-7977
▁sides	-7978
▁nieder	-7979
▁tackle	-7980
▁contained	-7981
▁umfassend	-7982
institution	-7983
VC	-7984
brit	-7985
länd	-7986
udem	-7987
bruch	-7988
ivity	-7989
worfen	-7990
▁Tibet	-7991
▁Vorbe	-7992
▁einig	-7993
▁teile	-7994
▁Handeln	-7995
▁Meinungs	-7996
▁beschäftigen	-7997
▁tro	-7998
ature	-7999
schaff	-8000
▁Zudem	-8001
▁seien	-8002
▁Ladies	-8003
▁griech	-8004
▁obstac	-8005
▁Auftrag	-8006
▁Nachbar	-8007
▁sources	-8008
▁Kompeten	-8009
▁hoffentlich	-8010
▁Wirklichkeit	-8011
▁Entwicklungen	-8012
▁coup	-8013
▁writ	-8014
▁Alger	-8015
▁Verst	-8016
▁näher	-8017
▁types	-8018
orthern	-8019
trieben	-8020
▁Streit	-8021
▁kennen	-8022
▁thorough	-8023
▁Abgeordneter	-8024
The	-8025
loyed	-8026
▁warm	-8027
itizen	-8028
assungs	-8029
program	-8030
▁Bedürf	-8031
▁Energy	-8032
▁stärken	-8033
▁Problems	-8034
▁verständ	-8035
▁interested	-8036
▁informieren	-8037
seh	-8038
ußt	-8039
rimes	-8040
steht	-8041
▁Ukra	-8042
▁auss	-8043
▁lies	-8044
▁Anhör	-8045
▁Every	-8046
▁react	-8047
handelt	-8048
henburg	-8049
▁insist	-8050
sammlung	-8051
▁Methode	-8052
▁reflect	-8053
▁vorrang	-8054
▁Elemente	-8055
▁entitled	-8056
▁gefördert	-8057
▁languages	-8058
▁allgemeine	-8059
▁verstanden	-8060
▁wettbewerb	-8061
▁Bürgerinnen	-8062
IN	-8063
▁symp	-8064
schrän	-8065
▁Basis	-8066
▁ehrgeiz	-8067
▁richten	-8068
▁einzigen	-8069
▁minority	-8070
▁derartige	-8071
▁mechanism	-8072
▁requested	-8073
uropäischen	-8074
▁übertragen	-8075
tik	-8076
wegs	-8077
volle	-8078
▁einf	-8079
kräfte	-8080
führten	-8081
zufügen	-8082
▁accomp	-8083
▁ability	-8084
▁verring	-8085
▁Vorteile	-8086
▁politics	-8087
▁contradict	-8088
▁technologies	-8089
▁grundlegenden	-8090
▁MEDA	-8091
▁Viele	-8092
reitung	-8093
▁Unions	-8094
▁stimmt	-8095
▁verlei	-8096
ügigkeit	-8097
▁expected	-8098
▁diversity	-8099
▁Gothenburg	-8100
open	-8101
▁Fäh	-8102
▁lar	-8103
▁Angol	-8104
▁toler	-8105
▁welch	-8106
britann	-8107
enswert	-8108
▁seines	-8109
▁penalty	-8110
▁verbind	-8111
▁condition	-8112
▁immediate	-8113
▁Großbritann	-8114
istr	-8115
uses	-8116
▁Dän	-8117
idium	-8118
▁dign	-8119
▁Market	-8120
▁linked	-8121
▁scheme	-8122
▁Hindern	-8123
▁Industry	-8124
▁jetzigen	-8125
▁repeated	-8126
▁subsidies	-8127
▁Palästinens	-8128
gy	-8129
ump	-8130
▁...	-8131
▁fil	-8132
oples	-8133
▁suchen	-8134
▁unless	-8135
▁Schiffe	-8136
politischen	-8137
▁impression	-8138
▁legitimate	-8139
▁Bö	-8140
▁fällt	-8141
▁ready	-8142
▁whilst	-8143
▁experts	-8144
▁geäußert	-8145
▁grundlegende	-8146
▁Freizügigkeit	-8147
nü	-8148
set	-8149
ugt	-8150
▁4,	-8151
▁Erd	-8152
stoff	-8153
apital	-8154
▁appar	-8155
▁dauer	-8156
▁hören	-8157
▁oppos	-8158
▁Märkte	-8159
▁finance	-8160
▁welchen	-8161
▁welfare	-8162
▁schwedische	-8163
sc	-8164
öhn	-8165
▁ve	-8166
▁Berg	-8167
▁aver	-8168
▁debt	-8169
▁größte	-8170
beziehen	-8171
▁approve	-8172
▁meaning	-8173
▁justified	-8174
▁nationals	-8175
▁ausreichen	-8176
▁guaranteed	-8177
▁ländlichen	-8178
▁Mitgliedern	-8179
▁Mitentscheid	-8180
ball	-8181
tert	-8182
▁Auth	-8183
liance	-8184
▁Verzö	-8185
▁älter	-8186
▁signal	-8187
▁Internal	-8188
▁Sprachen	-8189
▁threaten	-8190
▁zurückge	-8191
▁Verhandlungs	-8192
▁multilateral	-8193
▁Gleichgewicht	-8194
▁diesbezüglich	-8195
Mit	-8196
▁Bi	-8197
undes	-8198
▁Niel	-8199
actory	-8200
▁equip	-8201
atively	-8202
▁warten	-8203
▁Berichten	-8204
▁operators	-8205
▁praktisch	-8206
▁strengthening	-8207
▁heav	-8208
räften	-8209
▁2001,	-8210
▁dahin	-8211
▁passed	-8212
▁neither	-8213
▁Ausnahme	-8214
▁protecting	-8215
äumt	-8216
endes	-8217
▁Poet	-8218
▁isol	-8219
▁spok	-8220
▁Besuch	-8221
▁target	-8222
▁consistent	-8223
▁Agrarpolitik	-8224
osal	-8225
waren	-8226
weder	-8227
▁Milit	-8228
▁space	-8229
Vertrag	-8230
▁Legisl	-8231
▁Modell	-8232
▁Prozeß	-8233
▁Status	-8234
▁traged	-8235
abelling	-8236
änderung	-8237
▁citizen	-8238
▁farming	-8239
▁reinfor	-8240
▁chemical	-8241
▁Poettering	-8242
▁perspective	-8243
▁Technologien	-8244
▁sicherzustellen	-8245
igu	-8246
▁EL	-8247
trol	-8248
▁dri	-8249
schau	-8250
▁Hoch	-8251
▁schl	-8252
▁peoples	-8253
▁erscheint	-8254
▁Produktion	-8255
▁Strukturen	-8256
▁consumption	-8257
hofs	-8258
osta	-8259
wing	-8260
▁Mac	-8261
▁issu	-8262
lauben	-8263
reifen	-8264
▁faced	-8265
▁gradu	-8266
▁scale	-8267
▁Zahlen	-8268
▁centre	-8269
▁crimes	-8270
▁automat	-8271
▁clarify	-8272
▁sichern	-8273
▁fighting	-8274
▁involves	-8275
▁continued	-8276
▁illegalen	-8277
▁Gemeinsame	-8278
▁restrictions	-8279
uba	-8280
▁GM	-8281
ails	-8282
fuhr	-8283
üben	-8284
union	-8285
▁Mann	-8286
▁Wall	-8287
▁break	-8288
▁Herzen	-8289
▁Küsten	-8290
bergangs	-8291
▁numerous	-8292
▁emergency	-8293
▁verurteilt	-8294
▁tut	-8295
hagen	-8296
▁Ober	-8297
ifteen	-8298
▁tätig	-8299
▁auffor	-8300
▁incent	-8301
▁veröff	-8302
▁geboten	-8303
▁operate	-8304
schätzung	-8305
▁restruct	-8306
▁Antworten	-8307
▁Mitglieds	-8308
▁abstimmen	-8309
▁angebracht	-8310
▁französische	-8311
xts	-8312
▁hol	-8313
▁via	-8314
cause	-8315
▁imag	-8316
istenz	-8317
berecht	-8318
▁assure	-8319
▁anstatt	-8320
▁monopol	-8321
▁separate	-8322
▁exclusion	-8323
▁respected	-8324
▁difference	-8325
▁miteinander	-8326
tru	-8327
▁Dr	-8328
▁fu	-8329
▁ut	-8330
angt	-8331
laus	-8332
olon	-8333
rise	-8334
ruit	-8335
▁Mut	-8336
▁erg	-8337
regel	-8338
▁Able	-8339
▁displa	-8340
▁likely	-8341
▁Gesetze	-8342
strategie	-8343
▁bestätigt	-8344
▁existence	-8345
▁letztlich	-8346
▁möglichen	-8347
▁bestimmter	-8348
IF	-8349
▁Ja	-8350
akis	-8351
▁Inn	-8352
▁Ter	-8353
based	-8354
ulich	-8355
▁Verl	-8356
▁ende	-8357
▁meat	-8358
▁Those	-8359
samkeit	-8360
▁dramat	-8361
assungen	-8362
▁whatever	-8363
▁Umständen	-8364
▁temporary	-8365
▁implications	-8366
ärenz	-8367
▁genü	-8368
▁ging	-8369
▁Ansch	-8370
▁Befür	-8371
▁Klima	-8372
▁Other	-8373
▁Sorgen	-8374
▁Because	-8375
▁airport	-8376
▁Allgemein	-8377
▁liability	-8378
▁perfectly	-8379
3,	-8380
▁Bolk	-8381
▁mittl	-8382
▁eingeb	-8383
▁moving	-8384
▁niemals	-8385
▁taxation	-8386
▁stehenden	-8387
▁eingehalten	-8388
▁menschlichen	-8389
▁hervorgehoben	-8390
▁elektronischen	-8391
8/	-8392
fun	-8393
▁Che	-8394
andal	-8395
▁Terr	-8396
▁sorg	-8397
▁ethnic	-8398
▁volunt	-8399
▁wünsch	-8400
▁Schaden	-8401
▁Ukraine	-8402
▁alcohol	-8403
▁briefly	-8404
▁Reaktion	-8405
▁contracts	-8406
▁Prinzipien	-8407
▁festzulegen	-8408
bo	-8409
wal	-8410
latz	-8411
▁300	-8412
▁Doha	-8413
▁phys	-8414
▁wert	-8415
▁Darum	-8416
▁bezahl	-8417
▁letzter	-8418
▁schlägt	-8419
▁gewissen	-8420
▁opinions	-8421
▁secondly	-8422
▁inzwischen	-8423
▁versichern	-8424
▁wettbewerbs	-8425
igent	-8426
ofern	-8427
▁coin	-8428
▁oral	-8429
▁dritten	-8430
icherungs	-8431
▁demonstrated	-8432
hib	-8433
▁lautet	-8434
▁secret	-8435
▁shared	-8436
▁Bildungs	-8437
▁Gefahren	-8438
▁insofern	-8439
▁reaction	-8440
▁eingegangen	-8441
öd	-8442
IDS	-8443
afr	-8444
▁Ele	-8445
▁Imm	-8446
▁emb	-8447
lying	-8448
ollar	-8449
opoul	-8450
▁abol	-8451
▁vorbe	-8452
▁müsste	-8453
▁drawing	-8454
▁Zeitplan	-8455
▁agencies	-8456
▁peaceful	-8457
▁Dokumente	-8458
▁ministers	-8459
entwicklung	-8460
▁beteiligen	-8461
▁personally	-8462
▁television	-8463
▁Aktionsplan	-8464
▁Untersuchung	-8465
▁Ra	-8466
emark	-8467
▁sele	-8468
estein	-8469
entions	-8470
mittelt	-8471
▁voranz	-8472
▁Authority	-8473
▁umzusetzen	-8474
/00):	-8475
ypern	-8476
▁nütz	-8477
▁margin	-8478
▁Univers	-8479
▁Sektoren	-8480
▁erinnert	-8481
▁weiteres	-8482
▁proportion	-8483
▁rechtlichen	-8484
▁staatlichen	-8485
".	-8486
Ber	-8487
▁Su	-8488
omit	-8489
▁Rind	-8490
▁Morocc	-8491
▁secure	-8492
▁unzure	-8493
▁Alkohol	-8494
▁Konsens	-8495
▁Ordnung	-8496
▁welcher	-8497
▁timetable	-8498
▁Bolkestein	-8499
▁operational	-8500
.00	-8501
▁üb	-8502
ingu	-8503
▁Wür	-8504
ström	-8505
▁base	-8506
▁apart	-8507
▁Meines	-8508
▁Taliban	-8509
▁Citizens	-8510
▁February	-8511
icted	-8512
▁1995	-8513
▁Alters	-8514
▁angest	-8515
▁stelle	-8516
▁Angaben	-8517
▁Polizei	-8518
▁Zwischen	-8519
gleichheit	-8520
▁verlangen	-8521
▁competence	-8522
▁erhebliche	-8523
▁Erarbeitung	-8524
▁represented	-8525
orse	-8526
oßen	-8527
▁UNO	-8528
feind	-8529
rates	-8530
▁Bosn	-8531
▁spät	-8532
commun	-8533
kommun	-8534
▁prosec	-8535
▁underm	-8536
▁Nielson	-8537
▁destroy	-8538
▁geprüft	-8539
struction	-8540
▁Dänemark	-8541
▁continues	-8542
▁Bestandteil	-8543
▁beschäftigt	-8544
rel	-8545
▁35	-8546
▁lat	-8547
▁ELDR	-8548
▁Such	-8549
▁precise	-8550
▁bestimmt	-8551
▁darunter	-8552
▁resolved	-8553
▁nonetheless	-8554
▁improvements	-8555
oon	-8556
iode	-8557
▁Bus	-8558
ücken	-8559
▁Idee	-8560
▁inade	-8561
ategory	-8562
▁Zielen	-8563
▁ferner	-8564
▁transl	-8565
▁dignity	-8566
▁türkischen	-8567
wan	-8568
lock	-8569
▁kam	-8570
angel	-8571
▁North	-8572
▁eröff	-8573
Mitglie	-8574
zwungen	-8575
▁Greens	-8576
▁Grünen	-8577
▁exists	-8578
▁Denmark	-8579
▁Februar	-8580
▁witness	-8581
▁Bevölkerungs	-8582
▁communications	-8583
irk	-8584
kamp	-8585
▁High	-8586
▁Tsch	-8587
▁West	-8588
▁grav	-8589
gehens	-8590
▁plant	-8591
▁Common	-8592
▁tragic	-8593
▁nächste	-8594
▁revision	-8595
▁permanent	-8596
▁Gegenstand	-8597
12	-8598
ell	-8599
kund	-8600
prus	-8601
what	-8602
▁frequ	-8603
klärung	-8604
▁arrest	-8605
▁belgischen	-8606
▁vollkommen	-8607
▁proceedings	-8608
ps	-8609
▁path	-8610
rochen	-8611
▁court	-8612
▁worse	-8613
systems	-8614
▁Anzahl	-8615
▁Cyprus	-8616
▁lebens	-8617
▁Hinweis	-8618
▁Israeli	-8619
▁freedoms	-8620
▁Abkommens	-8621
▁Erzeugnisse	-8622
▁umfassenden	-8623
▁Ru	-8624
▁müß	-8625
▁Asso	-8626
▁erle	-8627
▁Techn	-8628
▁enjoy	-8629
▁zerst	-8630
▁damals	-8631
▁spread	-8632
erkennen	-8633
▁nations	-8634
▁Politiker	-8635
▁erheblich	-8636
▁richtigen	-8637
▁Katastrophe	-8638
▁einheitlichen	-8639
TA	-8640
▁Äuß	-8641
1999)	-8642
▁Begr	-8643
▁Präs	-8644
▁fine	-8645
ktiken	-8646
▁Costa	-8647
▁attra	-8648
▁achten	-8649
behörden	-8650
▁Deswegen	-8651
▁verloren	-8652
▁verstärken	-8653
▁association	-8654
▁2.	-8655
gers	-8656
▁allzu	-8657
▁außen	-8658
▁jenen	-8659
grenzen	-8660
▁Zypern	-8661
▁acquis	-8662
▁leiden	-8663
▁examine	-8664
▁spending	-8665
▁Ablehnung	-8666
▁unzureich	-8667
▁Regionalpolitik	-8668
roh	-8669
izin	-8670
lack	-8671
ques	-8672
▁hom	-8673
▁Häfen	-8674
▁noted	-8675
everkehr	-8676
▁bedeuten	-8677
▁equipment	-8678
▁exception	-8679
▁mitteilen	-8680
▁vorschlagen	-8681
mon	-8682
▁Miß	-8683
uting	-8684
▁Soll	-8685
nehmern	-8686
regelung	-8687
▁complic	-8688
▁imposed	-8689
inational	-8690
▁extended	-8691
▁ordnungs	-8692
▁verlangt	-8693
▁Pa	-8694
▁Cor	-8695
▁bit	-8696
▁Barn	-8697
▁vess	-8698
ensive	-8699
schung	-8700
▁Gipfelt	-8701
▁widersp	-8702
▁Eurojust	-8703
▁benötigen	-8704
▁Großbritannien	-8705
▁erf	-8706
avour	-8707
barer	-8708
▁tief	-8709
▁anbel	-8710
▁mobil	-8711
▁ships	-8712
▁solve	-8713
vereign	-8714
▁Ziffer	-8715
▁vieler	-8716
▁promotion	-8717
▁sovereign	-8718
▁demonstrate	-8719
▁politicians	-8720
hold	-8721
▁Car	-8722
▁Frü	-8723
▁Neu	-8724
raums	-8725
▁Inst	-8726
▁Rule	-8727
▁anbelangt	-8728
▁befürworten	-8729
▁eingebracht	-8730
▁Ausarbeitung	-8731
bit	-8732
zio	-8733
upts	-8734
▁Bur	-8735
atell	-8736
hrten	-8737
oning	-8738
▁host	-8739
▁verf	-8740
vertre	-8741
▁bound	-8742
▁verwe	-8743
session	-8744
▁wonach	-8745
▁Beamten	-8746
▁happens	-8747
▁accident	-8748
▁generell	-8749
▁Sozialdem	-8750
▁labelling	-8751
▁Zentralbank	-8752
▁beschränken	-8753
ays	-8754
▁Bil	-8755
▁PVC	-8756
▁len	-8757
ärkte	-8758
ütung	-8759
▁bedau	-8760
▁paper	-8761
▁Kategor	-8762
▁bewegen	-8763
▁solches	-8764
▁Kohärenz	-8765
▁erleicht	-8766
▁ernsthaft	-8767
▁Generation	-8768
▁Rechnungshof	-8769
nüp	-8770
aler	-8771
nach	-8772
▁kons	-8773
ground	-8774
▁Flugh	-8775
▁stell	-8776
itative	-8777
▁spreche	-8778
▁Perspekt	-8779
▁gerichtet	-8780
▁preparing	-8781
▁negotiating	-8782
▁durchzuführen	-8783
ZB	-8784
▁gl	-8785
meth	-8786
umed	-8787
viour	-8788
▁imper	-8789
▁union	-8790
▁Redner	-8791
▁falsch	-8792
▁spielt	-8793
▁wünsche	-8794
▁Anhörung	-8795
▁allowing	-8796
▁somewhat	-8797
▁innovative	-8798
▁Todesstrafe	-8799
▁Arbeitsplatz	-8800
▁nevertheless	-8801
oa	-8802
otten	-8803
inated	-8804
▁impose	-8805
▁placed	-8806
▁African	-8807
▁Familie	-8808
▁gezogen	-8809
▁manufactur	-8810
▁wichtigste	-8811
▁frage	-8812
▁tried	-8813
▁innere	-8814
urteilung	-8815
▁examples	-8816
▁bedeutsam	-8817
▁continent	-8818
▁eingeleitet	-8819
uts	-8820
stadt	-8821
örper	-8822
▁Pact	-8823
pendence	-8824
▁Another	-8825
▁beunruh	-8826
▁erneuer	-8827
▁lokalen	-8828
stehenden	-8829
▁entwickelten	-8830
lined	-8831
wirkt	-8832
▁distin	-8833
▁sexual	-8834
communic	-8835
▁Während	-8836
▁details	-8837
▁urgency	-8838
▁verfügt	-8839
▁zweitens	-8840
▁Offenheit	-8841
▁beschleun	-8842
▁regulatory	-8843
▁Mittelpunkt	-8844
▁Unterschied	-8845
▁Internationalen	-8846
▁Go	-8847
dent	-8848
iene	-8849
lose	-8850
änen	-8851
▁Lab	-8852
inely	-8853
macht	-8854
▁room	-8855
▁Exper	-8856
achteil	-8857
▁Assozi	-8858
ulations	-8859
▁Dialogs	-8860
▁average	-8861
▁announced	-8862
▁verleihen	-8863
▁mindestens	-8864
▁considering	-8865
hle	-8866
äßt	-8867
ughter	-8868
▁Innov	-8869
▁Organe	-8870
▁Teilen	-8871
▁Assembly	-8872
▁emphasis	-8873
▁Präsidium	-8874
▁Mitarbeiter	-8875
▁Unabhängigkeit	-8876
hy	-8877
ette	-8878
▁nöt	-8879
▁2010	-8880
gested	-8881
regeln	-8882
▁Waren	-8883
▁breit	-8884
▁source	-8885
▁equally	-8886
▁written	-8887
▁applying	-8888
▁Erfahrung	-8889
▁associated	-8890
▁undertaken	-8891
▁festgelegten	-8892
▁multinational	-8893
mbud	-8894
mien	-8895
akten	-8896
going	-8897
iling	-8898
▁vert	-8899
essene	-8900
gendes	-8901
▁night	-8902
▁strik	-8903
▁define	-8904
qualität	-8905
wareness	-8906
ringerung	-8907
schaffung	-8908
▁considers	-8909
▁codecision	-8910
▁encouraging	-8911
▁Einrichtungen	-8912
AN	-8913
rne	-8914
ming	-8915
netz	-8916
▁Erk	-8917
▁Van	-8918
▁lose	-8919
▁rich	-8920
active	-8921
ichert	-8922
▁talks	-8923
▁friend	-8924
▁überall	-8925
▁verwiesen	-8926
ADE	-8927
hre	-8928
▁EZB	-8929
▁ung	-8930
ables	-8931
organ	-8932
▁Verk	-8933
▁Relig	-8934
▁slight	-8935
▁sprach	-8936
▁Despite	-8937
▁requests	-8938
▁genuinely	-8939
▁weitgehend	-8940
▁ursprünglichen	-8941
▁portugiesischen	-8942
▁kil	-8943
▁Hung	-8944
▁Nutz	-8945
▁Wand	-8946
ischem	-8947
ologie	-8948
ulsory	-8949
fertigt	-8950
▁Maastr	-8951
bereiche	-8952
▁Beschluß	-8953
▁coherent	-8954
▁decisive	-8955
▁Schlüssel	-8956
▁Befugnisse	-8957
▁finanziert	-8958
▁construction	-8959
▁af	-8960
▁PSE	-8961
aries	-8962
tzeit	-8963
▁Ganz	-8964
▁diss	-8965
▁Vorred	-8966
▁depart	-8967
▁election	-8968
▁protocol	-8969
▁sorgfält	-8970
▁behaviour	-8971
▁landwirtschaft	-8972
ümm	-8973
5-06	-8974
▁Opt	-8975
▁bar	-8976
chmal	-8977
orient	-8978
▁alten	-8979
▁Obwohl	-8980
▁played	-8981
▁Maastricht	-8982
▁compliance	-8983
▁facilitate	-8984
▁constitution	-8985
▁zurückzuführen	-8986
▁ol	-8987
cker	-8988
▁Are	-8989
▁Sow	-8990
▁mal	-8991
▁exem	-8992
▁glad	-8993
gebiet	-8994
▁Byrne	-8995
▁sogen	-8996
▁dritte	-8997
▁stattf	-8998
▁protest	-8999
▁Konvents	-9000
▁Zimbabwe	-9001
▁kürzlich	-9002
▁zugleich	-9003
▁awareness	-9004
▁Verbesserungen	-9005
geg	-9006
▁Bu	-9007
viel	-9008
(2001)	-9009
rechten	-9010
▁Anmerk	-9011
▁Fisher	-9012
▁Freude	-9013
▁appell	-9014
▁purely	-9015
▁teilen	-9016
▁angekünd	-9017
▁Vorgehens	-9018
▁correspon	-9019
▁Employment	-9020
AS	-9021
ME	-9022
SV	-9023
Die	-9024
ania	-9025
▁Schl	-9026
▁kept	-9027
▁valu	-9028
sätzen	-9029
▁Verord	-9030
▁Barnier	-9031
▁Britain	-9032
▁amending	-9033
▁possibly	-9034
▁verstehe	-9035
▁minorities	-9036
▁italienischen	-9037
det	-9038
▁cop	-9039
spiel	-9040
▁irre	-9041
ointed	-9042
▁hands	-9043
folgung	-9044
▁Aufent	-9045
▁option	-9046
▁refers	-9047
▁Fischer	-9048
▁Gesicht	-9049
▁koordin	-9050
▁Argument	-9051
▁vereinbar	-9052
▁voluntary	-9053
wirklichung	-9054
▁überzeugen	-9055
lös	-9056
▁5,	-9057
rant	-9058
orate	-9059
▁afford	-9060
▁treated	-9061
▁befindet	-9062
vorschläge	-9063
▁Liberalen	-9064
▁published	-9065
▁Erwartungen	-9066
▁Verringerung	-9067
▁sicherstellen	-9068
/01	-9069
mod	-9070
▁tä	-9071
auso	-9072
gypt	-9073
cting	-9074
▁1994	-9075
▁Then	-9076
person	-9077
▁Insel	-9078
▁gründ	-9079
▁kurzem	-9080
▁Treffen	-9081
▁müssten	-9082
▁prosper	-9083
▁session	-9084
ichtlinie	-9085
▁Vorsorge	-9086
▁privaten	-9087
▁festzustellen	-9088
berg	-9089
enty	-9090
estic	-9091
▁Tage	-9092
▁Bundes	-9093
▁patent	-9094
▁Perhaps	-9095
▁payment	-9096
▁schrift	-9097
▁Freedoms	-9098
▁Ausgrenzung	-9099
▁angenommenen	-9100
ole	-9101
▁CO	-9102
feil	-9103
gung	-9104
zieren	-9105
▁Deleg	-9106
▁fehlt	-9107
▁latter	-9108
▁vision	-9109
isierten	-9110
▁Anträge	-9111
▁largely	-9112
▁offenen	-9113
▁relates	-9114
▁Betriebs	-9115
▁jährlich	-9116
▁Gegensatz	-9117
▁Socialist	-9118
▁described	-9119
▁vergleich	-9120
▁Produktions	-9121
Re	-9122
TE	-9123
▁Ag	-9124
bald	-9125
oriz	-9126
ahren	-9127
teuer	-9128
(1999)	-9129
ancial	-9130
▁2001.	-9131
▁bemer	-9132
▁phase	-9133
▁assume	-9134
▁einsch	-9135
▁rechts	-9136
▁Systeme	-9137
▁century	-9138
▁ratifiz	-9139
▁protected	-9140
▁Dokumenten	-9141
▁statistics	-9142
▁unverzüglich	-9143
▁Bürgerbeauftrag	-9144
▁Mos	-9145
▁Gang	-9146
märkte	-9147
dienste	-9148
▁Nether	-9149
▁Instead	-9150
▁Vorlage	-9151
▁railway	-9152
▁Wohlstand	-9153
▁extension	-9154
▁Netherlands	-9155
▁beigetragen	-9156
▁Verwirklichung	-9157
GC	-9158
▁Sü	-9159
ague	-9160
auft	-9161
mbol	-9162
vert	-9163
▁Har	-9164
▁hän	-9165
▁Heads	-9166
▁users	-9167
▁Niveau	-9168
▁sofern	-9169
▁Niederlan	-9170
▁substance	-9171
▁Telekommun	-9172
▁traditional	-9173
▁considerations	-9174
itzt	-9175
tung	-9176
laubt	-9177
erzeug	-9178
hütung	-9179
vollen	-9180
▁Welth	-9181
▁prove	-9182
▁Abfall	-9183
▁Männer	-9184
▁trifft	-9185
mbudsman	-9186
▁definit	-9187
▁solange	-9188
▁einstimm	-9189
sprozesses	-9190
▁Nachdruck	-9191
▁Stability	-9192
▁elsewhere	-9193
▁beeinträcht	-9194
▁exploitation	-9195
▁Prof	-9196
▁Schm	-9197
▁fiel	-9198
ishing	-9199
▁facts	-9200
▁gestr	-9201
▁spoke	-9202
▁Ausmaß	-9203
▁großes	-9204
▁israel	-9205
▁offenbar	-9206
▁Fisheries	-9207
▁coherence	-9208
▁endeavour	-9209
▁abgestimmt	-9210
▁auffordern	-9211
▁precaution	-9212
▁Parlamentar	-9213
▁Rindfleisch	-9214
bereinkommens	-9215
▁funktioniert	-9216
▁Ratspräsidentin	-9217
ala	-9218
year	-9219
▁IGC	-9220
▁bir	-9221
▁ther	-9222
▁Platz	-9223
▁rates	-9224
▁touch	-9225
utragen	-9226
verschm	-9227
▁orient	-9228
▁partly	-9229
achtungs	-9230
▁illustr	-9231
▁mobility	-9232
▁Kommunikation	-9233
▁entscheidende	-9234
▁Arbeitsplätzen	-9235
nt	-9236
ws	-9237
▁36	-9238
▁38	-9239
▁Cha	-9240
▁acht	-9241
▁flow	-9242
▁entry	-9243
▁Secret	-9244
▁oblige	-9245
▁pursue	-9246
▁quotas	-9247
▁highest	-9248
▁uniform	-9249
▁folgende	-9250
behandlung	-9251
▁suggested	-9252
▁highlighted	-9253
communications	-9254
Sta	-9255
icip	-9256
▁Blut	-9257
▁mach	-9258
▁stake	-9259
▁beseit	-9260
▁easier	-9261
▁nachzu	-9262
▁heading	-9263
▁holding	-9264
▁freiwill	-9265
▁qualifiz	-9266
▁concluded	-9267
▁Beitrittsk	-9268
▁ausgesetzt	-9269
usammenarbeit	-9270
utin	-9271
▁Ern	-9272
lared	-9273
▁Also	-9274
▁dict	-9275
▁wait	-9276
enness	-9277
▁abuse	-9278
▁engag	-9279
ystemen	-9280
▁bewußt	-9281
▁prepare	-9282
▁Jugoslaw	-9283
▁processes	-9284
▁ehemaligen	-9285
▁investments	-9286
▁Konsequenzen	-9287
▁Gewährleistung	-9288
IB	-9289
orry	-9290
usal	-9291
bring	-9292
ophob	-9293
techn	-9294
▁Does	-9295
▁Stadt	-9296
▁benef	-9297
▁gelingt	-9298
▁gewährt	-9299
▁Debatten	-9300
▁democrat	-9301
▁maritime	-9302
▁schlecht	-9303
▁excessive	-9304
▁referring	-9305
▁appreciate	-9306
▁concentrate	-9307
ba	-9308
ohn	-9309
▁Don	-9310
▁Rad	-9311
utive	-9312
▁läßt	-9313
▁behin	-9314
▁clean	-9315
▁pleas	-9316
▁texts	-9317
ausende	-9318
▁beraten	-9319
▁planned	-9320
ikanische	-9321
▁ausgehen	-9322
▁künftige	-9323
▁Mobilität	-9324
▁compulsory	-9325
▁innovation	-9326
▁teilnehmen	-9327
▁Abschaffung	-9328
▁auseinander	-9329
ids	-9330
agne	-9331
atal	-9332
elte	-9333
▁bomb	-9334
▁sout	-9335
▁verz	-9336
▁zone	-9337
▁echte	-9338
▁truth	-9339
spartei	-9340
▁Wahrung	-9341
▁Zeichen	-9342
▁Welthand	-9343
▁derzeitige	-9344
▁erarbeitet	-9345
▁keineswegs	-9346
▁maintaining	-9347
▁Andererseits	-9348
hört	-9349
▁Bek	-9350
▁Kre	-9351
▁Sal	-9352
üssen	-9353
▁Lärm	-9354
▁sinc	-9355
▁virt	-9356
▁Ausbe	-9357
▁Beisp	-9358
verletz	-9359
▁Control	-9360
▁suspend	-9361
▁External	-9362
▁welcomed	-9363
▁antworten	-9364
▁kn	-9365
ifor	-9366
▁ärm	-9367
▁Brok	-9368
▁Here	-9369
grenze	-9370
▁Ident	-9371
▁goals	-9372
▁Belgium	-9373
▁deliber	-9374
▁tragedy	-9375
▁begonnen	-9376
▁Framework	-9377
▁Luxembourg	-9378
▁speziellen	-9379
▁wirklichen	-9380
▁credibility	-9381
▁Außenpolitik	-9382
▁independence	-9383
gle	-9384
hus	-9385
van	-9386
▁Dav	-9387
▁ECB	-9388
▁sad	-9389
▁vacc	-9390
resent	-9391
▁voice	-9392
ältigen	-9393
▁danach	-9394
▁Ausgang	-9395
▁Ursachen	-9396
▁gehalten	-9397
▁globalen	-9398
▁herrscht	-9399
▁supposed	-9400
ätigkeiten	-9401
▁Beispiele	-9402
▁penalties	-9403
▁universal	-9404
▁Positionen	-9405
▁bestätigen	-9406
▁verhindert	-9407
▁determination	-9408
IS	-9409
ieb	-9410
▁5.	-9411
▁Az	-9412
wers	-9413
wind	-9414
▁Colomb	-9415
▁abziel	-9416
▁Männern	-9417
▁careful	-9418
▁relativ	-9419
▁Protocol	-9420
▁schließen	-9421
erechtigkeit	-9422
▁Wiederaufbau	-9423
St	-9424
übt	-9425
enkt	-9426
atlant	-9427
rechter	-9428
▁absurd	-9429
▁deserv	-9430
▁retain	-9431
▁amounts	-9432
▁endorse	-9433
▁debating	-9434
▁Erfordern	-9435
▁verlieren	-9436
▁Rechtsstaat	-9437
▁effectiveness	-9438
ya	-9439
ras	-9440
ski	-9441
erte	-9442
▁Any	-9443
▁Det	-9444
▁felt	-9445
▁zuge	-9446
▁korre	-9447
▁Tieren	-9448
▁wenige	-9449
▁Finland	-9450
▁berecht	-9451
▁sympath	-9452
▁collabor	-9453
▁gewünsch	-9454
▁stressed	-9455
▁zuständig	-9456
▁ultimately	-9457
▁Unternehmens	-9458
▁Zusammenhalt	-9459
▁konstitution	-9460
▁restructuring	-9461
uens	-9462
▁Kurz	-9463
ighten	-9464
reiber	-9465
alition	-9466
▁Anwend	-9467
▁abhäng	-9468
▁unfair	-9469
▁Strateg	-9470
▁Wirkung	-9471
▁friends	-9472
▁Praktiken	-9473
▁acknowled	-9474
▁rechtzeit	-9475
▁preventing	-9476
▁explanation	-9477
▁Zielsetzungen	-9478
▁supplementary	-9479
AC	-9480
iry	-9481
lings	-9482
älfte	-9483
▁stre	-9484
wegung	-9485
▁blood	-9486
▁Kräfte	-9487
▁spoken	-9488
▁Schäden	-9489
ugoslavia	-9490
▁diseases	-9491
▁mehrfach	-9492
▁Schreiben	-9493
▁introducing	-9494
▁politically	-9495
tag	-9496
▁1990	-9497
▁Irak	-9498
staats	-9499
▁Demon	-9500
▁gutes	-9501
igerung	-9502
▁Preise	-9503
▁Signal	-9504
▁Verlauf	-9505
▁remarks	-9506
▁schreck	-9507
▁Russland	-9508
▁compared	-9509
▁intensiv	-9510
▁Socialists	-9511
▁Bereitschaft	-9512
▁einheitliche	-9513
ato	-9514
bre	-9515
▁Bo	-9516
obin	-9517
▁Eben	-9518
▁seven	-9519
▁taxes	-9520
fristig	-9521
▁charge	-9522
▁permit	-9523
indungen	-9524
▁bemühen	-9525
▁legally	-9526
▁wachsen	-9527
▁openness	-9528
▁parallel	-9529
▁Anpassung	-9530
▁qualified	-9531
po	-9532
▁EIB	-9533
▁pet	-9534
iegen	-9535
inken	-9536
▁Nein	-9537
▁Pers	-9538
▁bann	-9539
▁Geist	-9540
▁Verhe	-9541
▁proof	-9542
ception	-9543
▁Angola	-9544
wachstum	-9545
▁überaus	-9546
▁erwartet	-9547
▁zurückzu	-9548
▁auftreten	-9549
▁extensive	-9550
▁angemessene	-9551
▁Gipfeltreffen	-9552
Ab	-9553
inu	-9554
uren	-9555
craft	-9556
▁Pass	-9557
▁Güter	-9558
▁zweck	-9559
enophob	-9560
▁Höchst	-9561
▁Modern	-9562
▁delays	-9563
▁gebill	-9564
▁mission	-9565
▁Pakistan	-9566
▁disposal	-9567
▁satisfied	-9568
▁Presidents	-9569
▁Vertretern	-9570
▁background	-9571
▁Feststellung	-9572
▁Ak	-9573
ills	-9574
ovis	-9575
▁KMU	-9576
äumen	-9577
▁jener	-9578
cycling	-9579
▁Anlass	-9580
▁Geneva	-9581
▁aftern	-9582
aktionen	-9583
▁waiting	-9584
▁erlassen	-9585
▁learning	-9586
▁southern	-9587
▁gestatten	-9588
▁indicated	-9589
▁Fischereip	-9590
▁Vorsitzenden	-9591
▁Außenminister	-9592
/02	-9593
fers	-9594
icks	-9595
ading	-9596
reyer	-9597
eignet	-9598
ährung	-9599
▁Laufe	-9600
▁disag	-9601
problem	-9602
▁categor	-9603
▁poorest	-9604
▁wollten	-9605
▁believes	-9606
▁verdient	-9607
ifications	-9608
▁governance	-9609
▁inadequate	-9610
▁industries	-9611
▁understood	-9612
ara	-9613
▁got	-9614
hilos	-9615
▁Fach	-9616
▁Fang	-9617
▁phen	-9618
necess	-9619
urning	-9620
▁Beste	-9621
Staaten	-9622
partner	-9623
▁Gerade	-9624
▁approx	-9625
▁klaren	-9626
▁Journal	-9627
▁früheren	-9628
▁historic	-9629
▁overcome	-9630
▁phenomen	-9631
▁rational	-9632
▁inclusion	-9633
▁renewable	-9634
▁wirkliche	-9635
▁determined	-9636
▁Krankheiten	-9637
▁durchführen	-9638
▁Haushaltsplan	-9639
▁3.	-9640
▁pie	-9641
▁Lamy	-9642
▁Ohne	-9643
astern	-9644
▁embry	-9645
▁lengt	-9646
▁valid	-9647
uptsäch	-9648
▁Berufs	-9649
▁Hälfte	-9650
▁prohib	-9651
▁stands	-9652
▁überprü	-9653
▁identity	-9654
▁opposite	-9655
instrument	-9656
▁religious	-9657
▁Beteiligten	-9658
▁Problematik	-9659
▁incorporated	-9660
▁Commissioners	-9661
osp	-9662
oton	-9663
▁Aug	-9664
aufen	-9665
mlich	-9666
▁Kann	-9667
▁sold	-9668
▁Joint	-9669
▁Würde	-9670
lechter	-9671
leitung	-9672
▁Agency	-9673
▁adjust	-9674
▁compon	-9675
sprachen	-9676
▁federal	-9677
▁Austrian	-9678
▁Kohäsion	-9679
▁unnecess	-9680
▁Handlungs	-9681
▁Verheugen	-9682
▁Ausbeutung	-9683
▁delegations	-9684
▁langfristig	-9685
oub	-9686
öße	-9687
▁Ol	-9688
▁Ban	-9689
gebie	-9690
olumb	-9691
▁gone	-9692
abling	-9693
aching	-9694
chelon	-9695
hängen	-9696
▁eight	-9697
▁zuges	-9698
lässlich	-9699
▁erstens	-9700
▁helping	-9701
▁Erzeuger	-9702
▁subjects	-9703
▁afternoon	-9704
▁confident	-9705
▁dargelegt	-9706
▁importantly	-9707
▁schwerwiegen	-9708
▁gegebenenfalls	-9709
osev	-9710
▁unn	-9711
igend	-9712
▁stip	-9713
sekret	-9714
▁Klein	-9715
▁Korea	-9716
▁Eigent	-9717
▁Michel	-9718
eitigung	-9719
▁dankbar	-9720
enntnisse	-9721
▁aircraft	-9722
▁Konflikte	-9723
▁arguments	-9724
▁cooperate	-9725
▁Formulierung	-9726
▁Entscheidungs	-9727
VP	-9728
WG	-9729
▁ru	-9730
utor	-9731
bleme	-9732
elben	-9733
▁barr	-9734
grunde	-9735
etschen	-9736
▁latest	-9737
▁Marktes	-9738
▁geregelt	-9739
▁beschränkt	-9740
▁acknowledge	-9741
▁sufficiently	-9742
▁Cent	-9743
▁Vice	-9744
▁vors	-9745
finanz	-9746
▁medic	-9747
▁August	-9748
▁jemand	-9749
▁sensib	-9750
▁answers	-9751
▁warrant	-9752
▁wiederum	-9753
▁zugrunde	-9754
▁hauptsäch	-9755
▁bezeichnet	-9756
▁collective	-9757
▁humanitäre	-9758
▁maintained	-9759
gemeinschaft	-9760
▁territorial	-9761
▁satisfactory	-9762
▁unterbreitet	-9763
▁Untersuchungen	-9764
.,	-9765
asm	-9766
laß	-9767
5-05	-9768
aters	-9769
▁Gese	-9770
▁cars	-9771
ffnung	-9772
haltet	-9773
▁Schuld	-9774
▁erhöht	-9775
▁jungen	-9776
vergence	-9777
▁extreme	-9778
▁welchem	-9779
▁Betracht	-9780
▁accompan	-9781
▁Ombudsman	-9782
▁applicant	-9783
▁materials	-9784
▁gesundheit	-9785
▁jedenfalls	-9786
▁pensioners	-9787
▁beabsichtigt	-9788
▁zusätzlichen	-9789
ilen	-9790
▁SME	-9791
▁pol	-9792
reift	-9793
ulgar	-9794
▁Malt	-9795
▁Vize	-9796
▁audi	-9797
▁Arten	-9798
▁absen	-9799
▁Gefäng	-9800
▁wealth	-9801
▁massive	-9802
▁fishermen	-9803
▁difficulty	-9804
▁entstanden	-9805
▁Vorausschau	-9806
▁ausgezeichnete	-9807
1,	-9808
sy	-9809
ald	-9810
int	-9811
herr	-9812
ixed	-9813
ients	-9814
▁Cres	-9815
▁Once	-9816
mechan	-9817
▁Nacht	-9818
▁Neben	-9819
▁deals	-9820
▁Besitz	-9821
▁Labour	-9822
▁audiovis	-9823
▁getragen	-9824
▁wirksame	-9825
▁strategies	-9826
▁Arbeitgeber	-9827
▁precautionary	-9828
uzz	-9829
irms	-9830
▁mur	-9831
mouth	-9832
ökonom	-9833
▁expla	-9834
schnitt	-9835
▁vorhin	-9836
▁Milosev	-9837
▁Vorteil	-9838
▁greatly	-9839
▁running	-9840
lichkeiten	-9841
▁Gespräche	-9842
▁membership	-9843
▁überlassen	-9844
▁humanitären	-9845
▁preparation	-9846
ams	-9847
eff	-9848
rate	-9849
▁hil	-9850
inate	-9851
▁double	-9852
▁gelegt	-9853
▁plants	-9854
▁undoub	-9855
▁Morocco	-9856
▁carrying	-9857
▁unanimously	-9858
▁x	-9859
ley	-9860
nex	-9861
sph	-9862
▁ca	-9863
tion	-9864
▁Sim	-9865
ziert	-9866
▁Marok	-9867
▁envis	-9868
nahmere	-9869
▁advice	-9870
▁places	-9871
▁surely	-9872
regionen	-9873
▁Budgetary	-9874
▁confirmed	-9875
▁realistic	-9876
rechtlichen	-9877
▁Verletzung	-9878
▁beinhaltet	-9879
▁constantly	-9880
▁einzusetzen	-9881
▁grundsätzlich	-9882
▁Gesellschaften	-9883
ada	-9884
▁95	-9885
ford	-9886
ächt	-9887
▁Mot	-9888
▁Real	-9889
▁korr	-9890
▁went	-9891
gently	-9892
▁exter	-9893
▁freie	-9894
▁Buiten	-9895
▁Crespo	-9896
▁offers	-9897
▁preced	-9898
economic	-9899
▁Respekt	-9900
▁capable	-9901
▁gewählt	-9902
▁domestic	-9903
▁governing	-9904
▁spezielle	-9905
▁hinzufügen	-9906
▁wiederholt	-9907
▁Konsultation	-9908
2)	-9909
II	-9910
arz	-9911
▁Coton	-9912
▁green	-9913
schafts	-9914
zubauen	-9915
▁Bedarf	-9916
▁Massen	-9917
▁einzig	-9918
▁Staates	-9919
▁Beschrän	-9920
▁Schulden	-9921
▁Ungleich	-9922
▁actively	-9923
▁entweder	-9924
▁granting	-9925
▁Tradition	-9926
▁obstacles	-9927
▁formuliert	-9928
▁Vizepräsident	-9929
▁technological	-9930
ony	-9931
▁EP	-9932
▁süd	-9933
itage	-9934
sport	-9935
atible	-9936
derten	-9937
iderst	-9938
▁2002.	-9939
▁Clear	-9940
▁Having	-9941
▁Volkes	-9942
▁fassen	-9943
▁Steuern	-9944
▁heutige	-9945
▁minutes	-9946
▁Glaubwürd	-9947
▁allocated	-9948
▁operating	-9949
NL	-9950
sh	-9951
/20	-9952
EWG	-9953
ählt	-9954
▁Eth	-9955
denkt	-9956
▁Amts	-9957
▁Gelt	-9958
▁Kenn	-9959
▁vorn	-9960
wachsen	-9961
▁seeing	-9962
▁amended	-9963
▁studies	-9964
▁Beiträge	-9965
▁aviation	-9966
▁Represent	-9967
▁folgenden	-9968
▁gezwungen	-9969
▁inflation	-9970
▁uncertain	-9971
▁eindeutige	-9972
▁achievement	-9973
▁menschliche	-9974
▁undoubtedly	-9975
institutional	-9976
rik	-9977
ührt	-9978
▁21.	-9979
▁Temp	-9980
▁inev	-9981
▁Leute	-9982
▁Monti	-9983
▁fleet	-9984
▁links	-9985
▁agency	-9986
▁starke	-9987
▁Belgien	-9988
▁drivers	-9989
▁angewand	-9990
▁stärkere	-9991
▁urgently	-9992
▁Wachstums	-9993
▁regionale	-9994
▁verwenden	-9995
▁Leistungen	-9996
▁indicators	-9997
▁relatively	-9998
▁Kooperation	-9999
▁Glaubwürdigkeit	-10000
geht	-10001
meld	-10002
ogau	-10003
▁Armen	-10004
▁Latin	-10005
▁Wogau	-10006
▁allows	-10007
▁ergänz	-10008
▁erhält	-10009
▁issued	-10010
▁Cotonou	-10011
▁Gericht	-10012
▁bislang	-10013
▁primary	-10014
▁tourism	-10015
missionen	-10016
▁Weiteren	-10017
▁manchmal	-10018
▁Beachtung	-10019
▁Begründung	-10020
▁Resolution	-10021
▁verteidigen	-10022
▁Fremdenverkehr	-10023
otti	-10024
strä	-10025
▁Erst	-10026
fällig	-10027
▁beruf	-10028
▁count	-10029
▁fruit	-10030
▁hopes	-10031
▁horiz	-10032
änglich	-10033
▁Urteil	-10034
▁großem	-10035
▁Autonom	-10036
▁version	-10037
▁Aspekten	-10038
▁Milosevic	-10039
▁behaupten	-10040
▁Seeverkehr	-10041
▁reconstruction	-10042
14	-10043
emm	-10044
ukt	-10045
otte	-10046
emost	-10047
▁AIDS	-10048
befehl	-10049
freund	-10050
verein	-10051
▁Monat	-10052
▁seeks	-10053
▁Militär	-10054
▁competent	-10055
▁veröffent	-10056
▁anzunehmen	-10057
schlossenheit	-10058
▁Investitions	-10059
▁48	-10060
▁sal	-10061
elled	-10062
icate	-10063
▁gesp	-10064
odurch	-10065
terung	-10066
wärtige	-10067
▁please	-10068
abilities	-10069
▁foremost	-10070
▁moreover	-10071
▁aufnehmen	-10072
▁geschützt	-10073
▁primarily	-10074
okratischen	-10075
▁Ausnahmere	-10076
▁Beseitigung	-10077
▁32	-10078
▁33	-10079
▁lä	-10080
▁tre	-10081
astro	-10082
ctual	-10083
▁corr	-10084
▁feed	-10085
▁daily	-10086
▁höchst	-10087
▁proved	-10088
▁Fleisch	-10089
▁absence	-10090
▁schemes	-10091
▁schools	-10092
▁chairman	-10093
▁prisoners	-10094
▁reiterate	-10095
▁bestehende	-10096
▁referendum	-10097
▁Herstellung	-10098
▁Terroristen	-10099
▁ordnungsgemäß	-10100
▁ausgeschlossen	-10101
NG	-10102
zep	-10103
▁cy	-10104
ifth	-10105
ulate	-10106
ranche	-10107
▁Defiz	-10108
▁Given	-10109
▁chann	-10110
▁leads	-10111
▁multi	-10112
▁natür	-10113
mäßigen	-10114
▁courts	-10115
▁reicht	-10116
▁stocks	-10117
▁abstain	-10118
▁affects	-10119
▁fifteen	-10120
▁wodurch	-10121
▁changing	-10122
▁register	-10123
▁schlagen	-10124
▁resulting	-10125
▁Flüchtling	-10126
spolitischen	-10127
eb	-10128
Kon	-10129
ieg	-10130
ike	-10131
▁4.	-10132
▁6,	-10133
inea	-10134
sein	-10135
ering	-10136
▁worr	-10137
▁zivil	-10138
getragen	-10139
hilosoph	-10140
▁Western	-10141
▁autonom	-10142
▁genauso	-10143
▁obliged	-10144
▁electric	-10145
▁familiar	-10146
▁valuable	-10147
▁societies	-10148
▁Einstellung	-10149
▁abschließend	-10150
▁expectations	-10151
▁koh	-10152
▁doub	-10153
▁Boden	-10154
▁During	-10155
resident	-10156
schaffen	-10157
▁Vorrang	-10158
▁welches	-10159
▁erteilen	-10160
▁zulassen	-10161
▁beschließen	-10162
▁unterbreiten	-10163
▁hauptsächlich	-10164
EL	-10165
orf	-10166
lief	-10167
▁lic	-10168
▁Frid	-10169
▁Noch	-10170
▁Roth	-10171
igence	-10172
▁genie	-10173
igkeits	-10174
▁brings	-10175
▁Anlagen	-10176
▁Stunden	-10177
▁vessels	-10178
isierungs	-10179
▁millions	-10180
▁Standards	-10181
▁economies	-10182
▁Mechanismen	-10183
▁Volkspartei	-10184
▁Katastrophen	-10185
iop	-10186
pakt	-10187
▁Mug	-10188
▁Food	-10189
▁While	-10190
▁straf	-10191
▁firmly	-10192
▁nation	-10193
▁Widerst	-10194
▁follows	-10195
▁gewinnen	-10196
sprogramme	-10197
zuschließen	-10198
▁Haftbefehl	-10199
▁interessiert	-10200
UE	-10201
uung	-10202
läuft	-10203
▁west	-10204
lieben	-10205
▁drast	-10206
▁günst	-10207
▁notes	-10208
▁quote	-10209
▁remove	-10210
gelassen	-10211
schutzes	-10212
undering	-10213
▁Rechten	-10214
▁becomes	-10215
▁besorgt	-10216
▁weitaus	-10217
▁Umstruktur	-10218
▁konsequent	-10219
▁Arbeitszeit	-10220
▁investigation	-10221
▁Mü	-10222
serv	-10223
vant	-10224
▁Fil	-10225
oping	-10226
ranken	-10227
ukture	-10228
▁alarm	-10229
▁super	-10230
Prozess	-10231
▁easily	-10232
national	-10233
▁entfern	-10234
▁finding	-10235
▁übersch	-10236
▁Simbabwe	-10237
▁ansprechen	-10238
▁überprüfen	-10239
▁Beobachtungs	-10240
zusammenarbeit	-10241
▁militärischen	-10242
9,	-10243
dire	-10244
▁Hal	-10245
▁Nap	-10246
▁sil	-10247
▁züg	-10248
derly	-10249
▁stim	-10250
iforis	-10251
itzung	-10252
weilen	-10253
▁admit	-10254
▁dient	-10255
▁heavy	-10256
einamer	-10257
▁destru	-10258
▁figure	-10259
gänglich	-10260
▁Betriebe	-10261
▁Katiforis	-10262
▁disasters	-10263
▁bekräftigt	-10264
▁constitute	-10265
▁identified	-10266
▁convergence	-10267
verschmutzung	-10268
▁undertakings	-10269
4,	-10270
dez	-10271
hlt	-10272
opf	-10273
abled	-10274
spart	-10275
ängst	-10276
▁surv	-10277
gebaut	-10278
▁expert	-10279
haushalt	-10280
▁Prozent	-10281
▁abgesch	-10282
▁mögliche	-10283
▁verschär	-10284
▁ziemlich	-10285
▁irgendein	-10286
▁significance	-10287
fat	-10288
▁7,	-10289
ürze	-10290
▁Chem	-10291
▁Infl	-10292
Europe	-10293
▁aband	-10294
▁derog	-10295
▁Export	-10296
▁Sektors	-10297
▁elderly	-10298
▁mistake	-10299
▁Beschwer	-10300
▁category	-10301
▁irischen	-10302
▁xenophob	-10303
▁Christian	-10304
▁Einschrän	-10305
▁intentions	-10306
▁schwierige	-10307
itätsprinzip	-10308
▁Verhandlung	-10309
▁Jugendlichen	-10310
yr	-10311
pla	-10312
matic	-10313
verän	-10314
▁Auge	-10315
▁judg	-10316
▁size	-10317
▁geehrte	-10318
▁ablehnen	-10319
▁effektiv	-10320
▁railways	-10321
▁Luxemburg	-10322
▁correctly	-10323
▁intensive	-10324
▁Mitwirkung	-10325
▁biotechnolog	-10326
▁interpretation	-10327
ini	-10328
pay	-10329
▁Sä	-10330
▁Kan	-10331
laden	-10332
worte	-10333
▁Dire	-10334
▁Kind	-10335
▁weist	-10336
Bericht	-10337
iensten	-10338
▁waters	-10339
▁zahlen	-10340
▁Tourism	-10341
▁gebeten	-10342
▁propert	-10343
zustimmen	-10344
▁basically	-10345
▁Errichtung	-10346
▁considerably	-10347
bu	-10348
ery	-10349
▁End	-10350
▁milk	-10351
▁choose	-10352
▁incomp	-10353
▁verfüg	-10354
▁Stimmen	-10355
▁cigaret	-10356
▁erleben	-10357
▁percent	-10358
▁release	-10359
▁accounts	-10360
▁deserves	-10361
▁intervene	-10362
▁Programmen	-10363
▁gearbeitet	-10364
▁vorstellen	-10365
▁gegenwärtige	-10366
▁manufacturers	-10367
▁scr	-10368
deckt	-10369
scale	-10370
▁wann	-10371
betrie	-10372
ieller	-10373
▁Reduz	-10374
▁breite	-10375
▁clause	-10376
▁sieben	-10377
▁Finnland	-10378
▁Staatsan	-10379
▁genannte	-10380
▁sozialer	-10381
▁Teilnahme	-10382
▁Vorredner	-10383
▁mittleren	-10384
▁einstimmig	-10385
schreitenden	-10386
▁einzuführen	-10387
▁spezifischen	-10388
17	-10389
Reg	-10390
ufe	-10391
anen	-10392
apeut	-10393
ublin	-10394
▁beob	-10395
achter	-10396
räumen	-10397
▁built	-10398
quality	-10399
▁Umgang	-10400
▁privat	-10401
▁resist	-10402
Mitglied	-10403
▁Marokko	-10404
▁evident	-10405
▁rapidly	-10406
▁Territor	-10407
▁Ausnahmen	-10408
▁enthaltenen	-10409
▁entscheidend	-10410
▁Ratifizierung	-10411
stoß	-10412
▁Dut	-10413
▁Tex	-10414
▁lag	-10415
mögen	-10416
overy	-10417
▁news	-10418
▁sets	-10419
ürokrat	-10420
▁inhalt	-10421
▁pillar	-10422
▁Washing	-10423
▁advance	-10424
▁enttäus	-10425
▁ethical	-10426
▁exports	-10427
▁Grünbuch	-10428
▁heritage	-10429
▁benachteil	-10430
▁Binnenmarktes	-10431
▁Subsidiarität	-10432
ane	-10433
nor	-10434
rak	-10435
fäll	-10436
▁Ost	-10437
▁Zuge	-10438
luscon	-10439
▁Pläne	-10440
▁sorry	-10441
comings	-10442
▁honest	-10443
▁verank	-10444
▁bedauere	-10445
▁Berluscon	-10446
▁Verbreitung	-10447
▁electricity	-10448
▁verurteilen	-10449
▁vorzunehmen	-10450
▁militärische	-10451
▁Gleichstellung	-10452
▁bereitgestellt	-10453
13	-10454
▁IN	-10455
▁Dur	-10456
▁Fuß	-10457
▁Opp	-10458
▁Etik	-10459
▁drug	-10460
▁gehe	-10461
advant	-10462
alling	-10463
▁Evans	-10464
▁enhan	-10465
▁neutr	-10466
▁zählen	-10467
▁langsam	-10468
▁partner	-10469
▁schafft	-10470
ufficient	-10471
▁abhängig	-10472
▁hingegen	-10473
▁identify	-10474
▁vertritt	-10475
▁employers	-10476
▁denjenigen	-10477
▁facilities	-10478
▁Äußerungen	-10479
▁Hindernisse	-10480
▁Reduzierung	-10481
wirtschaftung	-10482
▁shortcomings	-10483
▁Modernisierung	-10484
för	-10485
▁Bla	-10486
machen	-10487
modell	-10488
▁Bitte	-10489
▁Frist	-10490
▁Women	-10491
▁angep	-10492
▁black	-10493
▁motor	-10494
▁Atlant	-10495
▁Bureau	-10496
▁Danish	-10497
▁Geldwä	-10498
▁Genehm	-10499
▁declar	-10500
▁duties	-10501
▁fields	-10502
▁solely	-10503
▁justify	-10504
▁Existenz	-10505
▁Material	-10506
▁jegliche	-10507
▁thanking	-10508
▁disadvant	-10509
▁Cooperation	-10510
▁Einschätzung	-10511
▁unterzeichnet	-10512
▁uneingeschränkt	-10513
lled	-10514
▁afr	-10515
aster	-10516
▁Wähl	-10517
▁stor	-10518
▁Hafen	-10519
▁banks	-10520
▁trial	-10521
▁Mutter	-10522
▁Wichtig	-10523
▁Gesetzes	-10524
spolitiken	-10525
▁Berlusconi	-10526
▁terrorists	-10527
▁verbundenen	-10528
▁Delegationen	-10529
▁Wesentlichen	-10530
▁She	-10531
ulner	-10532
▁calc	-10533
▁unre	-10534
ikanen	-10535
läufig	-10536
▁Taten	-10537
▁hence	-10538
▁Office	-10539
▁Inkraft	-10540
▁Zigaret	-10541
▁cloning	-10542
openhagen	-10543
▁Wahrheit	-10544
▁bedanken	-10545
▁Secretary	-10546
▁Beratungen	-10547
▁Washington	-10548
▁politisches	-10549
▁rechtzeitig	-10550
aß	-10551
EEC	-10552
eten	-10553
meid	-10554
oral	-10555
▁GUE	-10556
▁saw	-10557
▁Diam	-10558
▁crop	-10559
afrika	-10560
iteten	-10561
▁Where	-10562
füllung	-10563
▁Mangel	-10564
▁couple	-10565
▁playing	-10566
▁completed	-10567
▁diplomatic	-10568
▁Flüchtlings	-10569
60	-10570
AO	-10571
ses	-10572
▁45	-10573
▁Ve	-10574
ades	-10575
aket	-10576
▁Arg	-10577
▁Rub	-10578
reise	-10579
▁Verab	-10580
▁forum	-10581
▁mitge	-10582
▁Mugabe	-10583
▁acting	-10584
▁einzur	-10585
▁Defence	-10586
▁Senkung	-10587
▁detaill	-10588
▁niedrig	-10589
▁numbers	-10590
▁offered	-10591
▁reichen	-10592
▁replace	-10593
▁2000-200	-10594
▁erwähnen	-10595
gestaltung	-10596
▁Buitenweg	-10597
▁Kompromiß	-10598
▁betreiben	-10599
▁Welthandels	-10600
▁destruction	-10601
▁garantieren	-10602
▁supervision	-10603
▁Gerechtigkeit	-10604
▁organisierten	-10605
lls	-10606
▁LE	-10607
iety	-10608
lymp	-10609
mier	-10610
ärkt	-10611
▁Konk	-10612
▁Wird	-10613
▁trib	-10614
messen	-10615
▁Geber	-10616
▁ermut	-10617
▁verhe	-10618
olonial	-10619
▁Tragöd	-10620
▁vulner	-10621
▁intelle	-10622
▁kämpfen	-10623
▁Schreyer	-10624
▁surround	-10625
gestellten	-10626
▁erläutern	-10627
▁producing	-10628
▁verlassen	-10629
▁negotiation	-10630
▁verabschieden	-10631
▁Gemeinschaften	-10632
▁unterschiedlich	-10633
▁Slo	-10634
▁cod	-10635
alter	-10636
▁flag	-10637
▁insp	-10638
▁Georg	-10639
▁Dublin	-10640
▁bildet	-10641
▁echten	-10642
▁Eastern	-10643
▁geraten	-10644
▁profits	-10645
▁ärmsten	-10646
▁genügend	-10647
▁verboten	-10648
▁vorsieht	-10649
▁slaughter	-10650
▁complement	-10651
▁Ministerrat	-10652
▁bekanntlich	-10653
▁complicated	-10654
▁vorbereitet	-10655
▁europäisches	-10656
▁wirtschaftlich	-10657
▁Stabilitätspakt	-10658
TER	-10659
urb	-10660
anst	-10661
iben	-10662
▁Vis	-10663
▁hyp	-10664
endet	-10665
▁2005	-10666
▁Buch	-10667
▁Gebä	-10668
▁früh	-10669
ranten	-10670
▁Hilfs	-10671
▁Malta	-10672
▁consc	-10673
▁hängt	-10674
▁sugar	-10675
ervation	-10676
träglich	-10677
▁Betrugs	-10678
▁Gipfels	-10679
▁Harbour	-10680
▁respects	-10681
▁umsetzen	-10682
▁Gestatten	-10683
▁Herkunfts	-10684
▁ländliche	-10685
▁obligator	-10686
▁kulturelle	-10687
An	-10688
hner	-10689
ndez	-10690
acher	-10691
▁Gelder	-10692
▁Glückw	-10693
▁ergibt	-10694
▁keinem	-10695
▁korrig	-10696
▁Aussage	-10697
▁Kontakt	-10698
▁Russian	-10699
▁Wissens	-10700
▁options	-10701
▁Garantie	-10702
▁Redebeit	-10703
Richtlinie	-10704
▁Prozesses	-10705
▁Erreichung	-10706
▁erarbeiten	-10707
▁verstärkte	-10708
▁Jugoslawien	-10709
PT	-10710
ROM	-10711
ähe	-10712
asts	-10713
sych	-10714
▁1993	-10715
▁Maul	-10716
▁laut	-10717
▁pict	-10718
akzept	-10719
▁Egypt	-10720
weitung	-10721
▁Lasten	-10722
▁Mandat	-10723
▁kosten	-10724
▁langen	-10725
▁wenden	-10726
anischen	-10727
▁schritt	-10728
▁zweiter	-10729
▁Klarheit	-10730
▁gelingen	-10731
▁schließe	-10732
▁vorliegt	-10733
▁Financial	-10734
▁violations	-10735
▁übermitteln	-10736
▁Durchsetzung	-10737
▁wesentlicher	-10738
▁42	-10739
ilot	-10740
▁sto	-10741
▁Vern	-10742
▁deter	-10743
▁reich	-10744
fachung	-10745
▁shares	-10746
führungs	-10747
ältigung	-10748
▁Echelon	-10749
▁himself	-10750
▁imagine	-10751
leistungs	-10752
▁Entschäd	-10753
▁beurteil	-10754
▁abgegeben	-10755
▁schneller	-10756
▁unmöglich	-10757
beziehungen	-10758
▁Außenhandel	-10759
▁Abstimmungen	-10760
ADER	-10761
uzzo	-10762
licit	-10763
weite	-10764
▁Asia	-10765
▁warn	-10766
▁ziel	-10767
ivität	-10768
leitet	-10769
ursday	-10770
▁Freit	-10771
▁estim	-10772
ocolate	-10773
▁Centre	-10774
▁kommer	-10775
ierender	-10776
▁Führung	-10777
▁Experten	-10778
▁Thursday	-10779
▁Aufhebung	-10780
▁Autonomie	-10781
▁festlegen	-10782
▁angewendet	-10783
rot	-10784
▁400	-10785
▁jun	-10786
▁tie	-10787
▁zer	-10788
bauen	-10789
icans	-10790
isory	-10791
istet	-10792
▁Left	-10793
▁SMEs	-10794
wertet	-10795
▁chain	-10796
▁Serbia	-10797
ikatoren	-10798
▁harmful	-10799
▁höchste	-10800
▁postpon	-10801
▁Faktoren	-10802
▁Schutzes	-10803
▁interpre	-10804
▁straight	-10805
▁belgische	-10806
▁Ausweitung	-10807
▁Hersteller	-10808
▁emphasised	-10809
▁gegenseitigen	-10810
rad	-10811
▁8,	-10812
krit	-10813
▁Gut	-10814
▁Sum	-10815
▁dän	-10816
▁fit	-10817
Mittel	-10818
▁Forum	-10819
▁Gefühl	-10820
▁LEADER	-10821
▁steuer	-10822
▁dynamic	-10823
schiedung	-10824
▁diplomat	-10825
▁Kontinent	-10826
▁definiert	-10827
▁auswärtige	-10828
▁ausführlich	-10829
▁observation	-10830
▁Verabschiedung	-10831
ße	-10832
aria	-10833
▁20.	-10834
▁upd	-10835
▁Klau	-10836
▁ster	-10837
▁susp	-10838
mäßige	-10839
rängen	-10840
▁Great	-10841
ischung	-10842
▁Arafat	-10843
enseuche	-10844
▁einzelne	-10845
▁ratified	-10846
▁speeches	-10847
▁trotzdem	-10848
▁erwähnten	-10849
▁kontrollieren	-10850
40	-10851
DI	-10852
mord	-10853
ondon	-10854
▁Both	-10855
▁Hohe	-10856
ziplin	-10857
▁Dauer	-10858
▁Kürze	-10859
▁spend	-10860
orgungs	-10861
▁Basque	-10862
▁Ermitt	-10863
▁offene	-10864
jährigen	-10865
▁Clearly	-10866
▁feeling	-10867
▁keeping	-10868
▁Zahlungs	-10869
▁drafting	-10870
▁excluded	-10871
▁strukture	-10872
▁Vorstellung	-10873
▁beantworten	-10874
▁necessarily	-10875
▁Insbesondere	-10876
▁preparations	-10877
▁Bereitstellung	-10878
▁diesbezüglichen	-10879
/9	-10880
coun	-10881
inen	-10882
▁fla	-10883
▁gap	-10884
▁pan	-10885
osing	-10886
uoten	-10887
▁Four	-10888
▁Teile	-10889
▁derer	-10890
▁zuvor	-10891
zusehen	-10892
▁Betrug	-10893
▁Donner	-10894
▁Futter	-10895
▁Galile	-10896
▁hardly	-10897
▁debated	-10898
▁imports	-10899
standards	-10900
▁Vielzahl	-10901
▁besitzen	-10902
▁incident	-10903
▁obtained	-10904
▁Erhaltung	-10905
▁reflected	-10906
▁spanische	-10907
▁anzuwenden	-10908
▁previously	-10909
▁befürwortet	-10910
▁Klauenseuche	-10911
iö	-10912
REG	-10913
▁GD	-10914
▁Är	-10915
▁EVP	-10916
irect	-10917
owski	-10918
▁Dass	-10919
▁ausz	-10920
atuzzo	-10921
gewöhn	-10922
▁immen	-10923
▁kinds	-10924
▁spite	-10925
gebiete	-10926
▁Bulgar	-10927
▁Dingen	-10928
▁London	-10929
▁objekt	-10930
▁weight	-10931
fertigen	-10932
▁Gewicht	-10933
▁Zugangs	-10934
▁charges	-10935
▁oftmals	-10936
▁Abschluß	-10937
▁explicit	-10938
▁Argumente	-10939
▁Garantien	-10940
▁extending	-10941
▁therapeut	-10942
▁Geldwäsche	-10943
▁bewältigen	-10944
▁Schwerpunkt	-10945
▁griechischen	-10946
▁reservations	-10947
lit	-10948
urt	-10949
bart	-10950
okol	-10951
tran	-10952
ätze	-10953
▁haz	-10954
isses	-10955
örung	-10956
▁stay	-10957
irable	-10958
▁Prote	-10959
▁Tobin	-10960
▁armed	-10961
▁faith	-10962
bleiben	-10963
▁Betrag	-10964
▁Straße	-10965
▁erlebt	-10966
▁punish	-10967
kontroll	-10968
▁Minuten	-10969
▁befasst	-10970
▁Erschein	-10971
▁property	-10972
▁terrible	-10973
antwortung	-10974
▁residence	-10975
▁extraordin	-10976
▁presenting	-10977
▁Tschetschen	-10978
▁Versammlung	-10979
▁demokratisch	-10980
▁entscheidenden	-10981
hme	-10982
nam	-10983
pet	-10984
▁Du	-10985
quis	-10986
▁Ori	-10987
▁aud	-10988
ckung	-10989
ipfel	-10990
▁Zoll	-10991
▁chap	-10992
TERREG	-10993
▁Dutch	-10994
▁Tisch	-10995
▁obser	-10996
▁Schmid	-10997
▁beruht	-10998
▁crises	-10999
▁restor	-11000
▁journal	-11001
President	-11002
▁Alliance	-11003
▁erwähnte	-11004
▁fünfzehn	-11005
▁geeignet	-11006
▁pleasure	-11007
▁Ausgleich	-11008
▁Gestaltung	-11009
▁Straftaten	-11010
▁applications	-11011
▁Representative	-11012
25	-11013
arth	-11014
bels	-11015
enne	-11016
▁10,	-11017
▁Non	-11018
hängt	-11019
▁spür	-11020
▁Netze	-11021
▁spect	-11022
▁werte	-11023
▁worst	-11024
gebieten	-11025
▁Freitag	-11026
▁Indones	-11027
▁Zustand	-11028
▁ausgest	-11029
▁erhoben	-11030
▁players	-11031
wesenheit	-11032
▁Methoden	-11033
▁erinnere	-11034
▁Zahlungen	-11035
▁auswirken	-11036
▁rechtliche	-11037
▁Grundsätzen	-11038
▁Situationen	-11039
▁Technologie	-11040
▁bedauerlich	-11041
▁verzeichnen	-11042
▁Finanzierungs	-11043
VO	-11044
hrt	-11045
▁Je	-11046
reds	-11047
▁maß	-11048
ulted	-11049
arzemb	-11050
▁Brenn	-11051
▁Action	-11052
▁Grenze	-11053
▁anstre	-11054
▁freuen	-11055
ausgaben	-11056
▁Seattle	-11057
▁besitzt	-11058
▁INTERREG	-11059
▁anwenden	-11060
▁aktuellen	-11061
▁überwinden	-11062
▁coordinated	-11063
verhandlungen	-11064
▁unabhängigen	-11065
▁Arbeitnehmern	-11066
▁collaboration	-11067
7,	-11068
jud	-11069
▁Lud	-11070
hthal	-11071
▁thir	-11072
sprozeß	-11073
▁Mängel	-11074
beschäft	-11075
ubringen	-11076
▁Jarzemb	-11077
▁smaller	-11078
▁Verbrech	-11079
▁airports	-11080
▁Zigaretten	-11081
▁categories	-11082
▁passengers	-11083
▁beantwortet	-11084
▁unnecessary	-11085
▁Menschenhandel	-11086
het	-11087
züge	-11088
arten	-11089
▁Haup	-11090
▁getr	-11091
▁proc	-11092
fangen	-11093
rohung	-11094
▁Jeder	-11095
▁sched	-11096
▁lernen	-11097
▁Etikett	-11098
▁financed	-11099
▁gewähren	-11100
▁horizont	-11101
▁indirect	-11102
▁Krankheit	-11103
▁confusion	-11104
▁verändert	-11105
▁Jarzembowski	-11106
80	-11107
NGL	-11108
osph	-11109
▁Exp	-11110
▁Mod	-11111
▁Vier	-11112
▁infr	-11113
artige	-11114
niveau	-11115
▁Ideen	-11116
▁Olymp	-11117
▁Paris	-11118
▁armen	-11119
▁Termin	-11120
▁oppose	-11121
ängerung	-11122
▁Premier	-11123
▁deserve	-11124
▁radical	-11125
▁speaker	-11126
▁testing	-11127
▁entfernt	-11128
▁launched	-11129
management	-11130
▁britische	-11131
▁Bestimmung	-11132
▁advantages	-11133
▁besonderer	-11134
▁prosperity	-11135
▁sorgfältig	-11136
▁Ausrichtung	-11137
▁Declaration	-11138
▁Parlamenten	-11139
▁transitional	-11140
▁portugiesische	-11141
▁Vorsorgeprinzip	-11142
asc	-11143
ibr	-11144
put	-11145
fted	-11146
wohn	-11147
▁Gas	-11148
daten	-11149
▁push	-11150
▁reve	-11151
▁Menge	-11152
▁geprä	-11153
▁incin	-11154
▁reass	-11155
▁schäd	-11156
▁zumal	-11157
▁Maaten	-11158
▁Meeres	-11159
▁Orient	-11160
▁geplan	-11161
▁murder	-11162
▁opened	-11163
▁taxpay	-11164
▁zuläss	-11165
▁medical	-11166
▁Liikanen	-11167
▁Erfüllung	-11168
▁marketing	-11169
▁vornehmen	-11170
▁phenomenon	-11171
▁österreich	-11172
bestimmungen	-11173
▁Generaldire	-11174
▁essentially	-11175
dienstleistungen	-11176
rebt	-11177
▁Eur	-11178
nimmt	-11179
▁dopp	-11180
▁town	-11181
attern	-11182
gelöst	-11183
soever	-11184
▁Gesam	-11185
▁guter	-11186
▁roads	-11187
▁conven	-11188
▁geleis	-11189
▁laufen	-11190
▁article	-11191
▁Befürcht	-11192
▁suffered	-11193
▁Strategien	-11194
▁finanzieren	-11195
▁possibilities	-11196
▁entscheidender	-11197
6,	-11198
FO	-11199
lem	-11200
iced	-11201
reibt	-11202
stuff	-11203
▁Letz	-11204
▁canc	-11205
▁fert	-11206
ahlung	-11207
wohner	-11208
▁Raums	-11209
▁unnöt	-11210
ommerce	-11211
▁helped	-11212
▁soweit	-11213
ualitäts	-11214
▁budgets	-11215
▁starken	-11216
▁begrenzt	-11217
▁Minderheit	-11218
▁exceptions	-11219
▁processing	-11220
▁suggestion	-11221
▁verursacht	-11222
▁Allgemeinen	-11223
▁beizutragen	-11224
▁sovereignty	-11225
▁durchzusetzen	-11226
▁eye	-11227
▁inf	-11228
▁pain	-11229
▁unab	-11230
▁Chair	-11231
▁arise	-11232
▁drink	-11233
viously	-11234
▁Commun	-11235
▁Geheim	-11236
▁chosen	-11237
▁höhere	-11238
▁sobald	-11239
▁English	-11240
▁Galileo	-11241
▁einseit	-11242
▁removed	-11243
▁Democrat	-11244
▁powerful	-11245
▁promised	-11246
▁suitable	-11247
▁Emissions	-11248
▁staatliche	-11249
▁whatsoever	-11250
▁Einwanderer	-11251
▁insufficient	-11252
▁kontrolliert	-11253
▁Constitutional	-11254
imp	-11255
▁CF	-11256
anke	-11257
grad	-11258
llaf	-11259
▁12,	-11260
▁Zuw	-11261
ariat	-11262
chnya	-11263
▁forg	-11264
▁unit	-11265
ienste	-11266
▁Under	-11267
▁geist	-11268
▁psych	-11269
country	-11270
related	-11271
weisung	-11272
▁Guinea	-11273
▁Sellaf	-11274
▁relate	-11275
▁appoint	-11276
▁Chechnya	-11277
▁bereitet	-11278
▁erwiesen	-11279
verfahrens	-11280
▁condemned	-11281
▁Sellafield	-11282
▁Steuerzahl	-11283
▁addressing	-11284
▁vorhandenen	-11285
▁Biotechnolog	-11286
▁eigentlichen	-11287
pap	-11288
akes	-11289
▁Korr	-11290
▁Glück	-11291
▁nehme	-11292
ouverän	-11293
stoffen	-11294
wieweit	-11295
Programm	-11296
▁Kapitel	-11297
▁centres	-11298
▁deficit	-11299
▁gefasst	-11300
▁Nichtreg	-11301
▁konfront	-11302
mitglieder	-11303
▁Konvention	-11304
▁Standpunkte	-11305
▁Hinsichtlich	-11306
▁strengthened	-11307
do	-11308
▁6.	-11309
hole	-11310
▁Lie	-11311
▁Sad	-11312
▁esc	-11313
einen	-11314
lesen	-11315
while	-11316
▁book	-11317
▁core	-11318
▁vast	-11319
lausel	-11320
▁Süden	-11321
▁persu	-11322
▁shift	-11323
handeln	-11324
▁Abhäng	-11325
▁Förder	-11326
▁Gewäss	-11327
▁Lernen	-11328
▁exceed	-11329
▁twenty	-11330
▁vertre	-11331
isziplin	-11332
▁Statist	-11333
▁entered	-11334
▁someone	-11335
▁chocolate	-11336
▁dependent	-11337
▁violation	-11338
▁profitieren	-11339
▁Conciliation	-11340
▁Unsicherheit	-11341
▁Nichtregierungs	-11342
45	-11343
med	-11344
▁Ank	-11345
▁Zuf	-11346
build	-11347
inger	-11348
▁Halb	-11349
bedarf	-11350
▁forts	-11351
▁incon	-11352
▁motiv	-11353
▁penal	-11354
▁Dollar	-11355
▁ausüben	-11356
▁infolge	-11357
▁medizin	-11358
▁wording	-11359
▁Colombia	-11360
▁internen	-11361
▁determine	-11362
▁eintreten	-11363
▁Unionsbürger	-11364
▁Beschäftigten	-11365
▁Vereinfachung	-11366
ALE	-11367
ipl	-11368
see	-11369
uis	-11370
ahme	-11371
iente	-11372
▁Cong	-11373
▁Kurs	-11374
▁Over	-11375
▁Städ	-11376
▁horr	-11377
ativer	-11378
▁1999.	-11379
▁Angeb	-11380
▁Umwel	-11381
▁juris	-11382
▁liber	-11383
opoulou	-11384
▁Schulen	-11385
▁bearing	-11386
▁coastal	-11387
▁regrett	-11388
▁section	-11389
▁contract	-11390
▁disabled	-11391
▁organise	-11392
▁Betroffen	-11393
▁bestimmen	-11394
▁geeignete	-11395
▁gefährdet	-11396
▁wenigsten	-11397
herstellung	-11398
▁applicable	-11399
▁Rechtsrahmen	-11400
▁neighbouring	-11401
▁eingereichten	-11402
▁unterscheiden	-11403
16	-11404
lez	-11405
▁Bau	-11406
▁erh	-11407
▁gas	-11408
annoy	-11409
klärt	-11410
▁Dell	-11411
▁Zwar	-11412
▁legt	-11413
▁tonn	-11414
▁Angst	-11415
▁tests	-11416
▁topic	-11417
▁Lannoy	-11418
▁treaty	-11419
sekretär	-11420
▁Fatuzzo	-11421
▁Ludford	-11422
▁beeinfl	-11423
▁registr	-11424
austausch	-11425
▁Ausschüsse	-11426
▁ecological	-11427
▁guaranteeing	-11428
▁veröffentlicht	-11429
▁Zuständigkeiten	-11430
▁ded	-11431
ieden	-11432
stieg	-11433
▁Inso	-11434
▁Lang	-11435
normen	-11436
▁Immun	-11437
▁Inner	-11438
▁conce	-11439
zeichen	-11440
▁Sicher	-11441
▁lieber	-11442
▁Lannoye	-11443
▁abandon	-11444
▁Erwägung	-11445
▁reagiert	-11446
initiative	-11447
▁explained	-11448
▁Gleichwohl	-11449
▁Vereinigte	-11450
▁eingeräumt	-11451
▁gefährlich	-11452
▁laundering	-11453
▁verringern	-11454
▁Alternative	-11455
▁Auseinander	-11456
▁erleichtern	-11457
▁ausgerichtet	-11458
▁rechtfertigen	-11459
▁Beitrittsländer	-11460
ros	-11461
▁9,	-11462
oman	-11463
resh	-11464
▁Fer	-11465
▁sach	-11466
1/2001	-11467
recken	-11468
▁south	-11469
▁strug	-11470
▁Freund	-11471
▁checks	-11472
▁paying	-11473
▁summer	-11474
bewerber	-11475
▁beruhen	-11476
▁erfreut	-11477
▁statute	-11478
▁Souverän	-11479
▁attempts	-11480
▁veränder	-11481
▁remaining	-11482
▁Lateinamer	-11483
▁zugestimmt	-11484
▁distinction	-11485
▁Assoziierungs	-11486
klar	-11487
▁GVO	-11488
▁Lob	-11489
apers	-11490
dring	-11491
krieg	-11492
suche	-11493
▁Wohn	-11494
▁erad	-11495
▁heik	-11496
lächen	-11497
▁Rural	-11498
▁piece	-11499
▁promp	-11500
▁reven	-11501
▁watch	-11502
flanzen	-11503
▁Banken	-11504
▁Papier	-11505
▁widely	-11506
▁Einheit	-11507
▁direkte	-11508
▁höheren	-11509
▁intoler	-11510
▁bürokrat	-11511
▁prospects	-11512
▁restricted	-11513
▁vulnerable	-11514
▁Bedürfnisse	-11515
▁undertaking	-11516
▁unzureichend	-11517
▁Sw	-11518
ader	-11519
uner	-11520
ahnen	-11521
sider	-11522
▁aside	-11523
▁bedro	-11524
▁urban	-11525
▁Ergänz	-11526
▁deeply	-11527
unktions	-11528
▁drafted	-11529
istischer	-11530
▁verletzt	-11531
▁angehören	-11532
▁president	-11533
▁functioning	-11534
▁strategischen	-11535
udes	-11536
▁Früh	-11537
feiler	-11538
illing	-11539
▁Embry	-11540
▁Spann	-11541
▁nötig	-11542
tragung	-11543
▁stable	-11544
▁zugute	-11545
▁Chinese	-11546
▁Schokol	-11547
▁Without	-11548
▁commend	-11549
▁premium	-11550
▁verschw	-11551
▁bedauern	-11552
▁immunity	-11553
▁inakzept	-11554
▁angewandt	-11555
▁conducted	-11556
▁Donnerstag	-11557
▁territories	-11558
▁Consequently	-11559
▁Luftverkehrs	-11560
▁associations	-11561
▁Funktionieren	-11562
▁Inkrafttreten	-11563
▁Währungsunion	-11564
."	-11565
husi	-11566
ibly	-11567
like	-11568
tinu	-11569
▁Krie	-11570
▁Well	-11571
atorium	-11572
zusagen	-11573
▁discip	-11574
▁gender	-11575
▁leiten	-11576
▁priorit	-11577
▁refugee	-11578
▁whereby	-11579
▁Aufgrund	-11580
▁combined	-11581
▁discover	-11582
▁recovery	-11583
▁consulted	-11584
▁negativen	-11585
▁widerspie	-11586
▁worldwide	-11587
▁endgültigen	-11588
▁Verbrauchern	-11589
▁Verlängerung	-11590
▁funktionieren	-11591
8,	-11592
All	-11593
dep	-11594
ibi	-11595
kap	-11596
▁EM	-11597
arma	-11598
denk	-11599
senz	-11600
▁Arz	-11601
rückt	-11602
▁Ehre	-11603
▁Fünf	-11604
▁alte	-11605
fehlen	-11606
▁Abbau	-11607
▁Allow	-11608
▁fewer	-11609
▁house	-11610
gerufen	-11611
prechen	-11612
vergenz	-11613
▁Zeiten	-11614
▁fairly	-11615
▁enthusi	-11616
▁equival	-11617
▁erteilt	-11618
▁healthy	-11619
▁Bewerber	-11620
▁ersetzen	-11621
▁erörtern	-11622
▁zentrale	-11623
▁Obviously	-11624
▁demanding	-11625
angehörigen	-11626
▁Vermittlung	-11627
▁stattfindet	-11628
▁Drittstaaten	-11629
▁satisfaction	-11630
▁clarification	-11631
▁gerechtfertigt	-11632
▁representation	-11633
▁Premierminister	-11634
äbe	-11635
emin	-11636
lern	-11637
derte	-11638
iefst	-11639
ünfte	-11640
▁ober	-11641
▁Milch	-11642
▁Reise	-11643
gelegte	-11644
▁Gewerk	-11645
▁Rubrik	-11646
▁mobile	-11647
▁trading	-11648
▁erörtert	-11649
▁Kompetenz	-11650
▁Wallström	-11651
▁laufenden	-11652
▁migration	-11653
schreitende	-11654
▁Opposition	-11655
▁Verteilung	-11656
▁nachdenken	-11657
▁competences	-11658
▁keinesfalls	-11659
▁transatlant	-11660
beschäftigung	-11661
▁vollständige	-11662
▁tatsächlichen	-11663
▁Tschetschenien	-11664
Al	-11665
Pl	-11666
▁75	-11667
▁Ku	-11668
roat	-11669
▁awa	-11670
▁syn	-11671
ening	-11672
mosph	-11673
▁tang	-11674
▁Bilanz	-11675
▁Tenden	-11676
▁credit	-11677
▁skills	-11678
▁schlimm	-11679
▁Randlage	-11680
▁Flughäfen	-11681
▁konkreter	-11682
▁garantiert	-11683
▁mündlichen	-11684
feindlichkeit	-11685
▁observations	-11686
▁persönlichen	-11687
äte	-11688
▁Bon	-11689
▁Sea	-11690
▁liv	-11691
fraid	-11692
▁fuel	-11693
nisses	-11694
▁proud	-11695
▁Regime	-11696
▁afraid	-11697
▁biolog	-11698
▁broadc	-11699
▁indire	-11700
▁recall	-11701
▁utmost	-11702
gefunden	-11703
▁writing	-11704
völkerung	-11705
▁Insofern	-11706
▁hundreds	-11707
▁vorgehen	-11708
▁Fähigkeit	-11709
▁Sicherung	-11710
▁zunehmend	-11711
▁Innovation	-11712
▁Jahrhunder	-11713
▁Legislativ	-11714
▁endgültige	-11715
▁angekündigt	-11716
▁bekräftigen	-11717
▁Palestinians	-11718
▁erforderliche	-11719
▁environmentally	-11720
9/	-11721
IL	-11722
ico	-11723
▁Kab	-11724
▁Zun	-11725
elung	-11726
glück	-11727
pidem	-11728
plant	-11729
▁neun	-11730
▁stam	-11731
ipping	-11732
kehren	-11733
▁award	-11734
verläss	-11735
verwalt	-11736
▁Durban	-11737
▁Morgen	-11738
▁doubts	-11739
▁hinweg	-11740
▁symbol	-11741
▁abgeben	-11742
▁smoking	-11743
▁strength	-11744
▁Ansichten	-11745
▁Verfasser	-11746
▁problemat	-11747
▁Augenblick	-11748
▁Grundlagen	-11749
▁Management	-11750
▁inspection	-11751
▁zugelassen	-11752
▁Ergebnissen	-11753
▁unterbrochen	-11754
3(	-11755
SC	-11756
ori	-11757
vey	-11758
ölf	-11759
ahrt	-11760
aren	-11761
baus	-11762
ikas	-11763
laut	-11764
▁Bis	-11765
deten	-11766
fällt	-11767
▁doct	-11768
▁russ	-11769
vented	-11770
▁Kapaz	-11771
▁fortz	-11772
diction	-11773
ifferen	-11774
▁stance	-11775
beschluss	-11776
▁barriers	-11777
▁bewerten	-11778
▁schweren	-11779
▁Identität	-11780
▁affecting	-11781
▁complaints	-11782
▁regelmäßig	-11783
▁Anmerkungen	-11784
▁Wirksamkeit	-11785
▁intellectual	-11786
▁konfrontiert	-11787
▁Entschließungen	-11788
Kenn	-11789
▁11,	-11790
▁Tro	-11791
break	-11792
▁wage	-11793
gefühl	-11794
lösung	-11795
▁Assoc	-11796
▁Niger	-11797
▁läuft	-11798
▁thres	-11799
▁Legitim	-11800
▁causing	-11801
▁periods	-11802
▁restore	-11803
▁topical	-11804
▁distingu	-11805
▁entsteht	-11806
▁occurred	-11807
▁offences	-11808
▁welcomes	-11809
▁Fernsehen	-11810
▁Südafrika	-11811
▁destroyed	-11812
▁herrschen	-11813
▁surprised	-11814
▁verändern	-11815
▁revolution	-11816
▁vermitteln	-11817
▁vorschlägt	-11818
▁Perspektive	-11819
▁interessant	-11820
▁spezifische	-11821
▁willingness	-11822
▁Vorgehensweise	-11823
ijk	-11824
oni	-11825
rich	-11826
▁13.	-11827
▁Fon	-11828
▁Sup	-11829
▁buy	-11830
▁rig	-11831
ergeb	-11832
▁Like	-11833
▁none	-11834
▁beibe	-11835
▁glück	-11836
▁expand	-11837
▁Akteure	-11838
▁Fassung	-11839
▁Fontain	-11840
▁Vorwand	-11841
▁whereas	-11842
▁deswegen	-11843
▁zutiefst	-11844
stätigkeit	-11845
▁erfordern	-11846
▁Jahrhundert	-11847
▁Verstärkung	-11848
▁exceptional	-11849
▁performance	-11850
▁Straßenverkehr	-11851
feit	-11852
▁Kor	-11853
▁Free	-11854
▁froh	-11855
▁oben	-11856
▁prev	-11857
lüssen	-11858
▁Neves	-11859
▁mögen	-11860
▁shock	-11861
▁trend	-11862
▁Friday	-11863
▁Verhof	-11864
▁Zucker	-11865
▁engage	-11866
▁postal	-11867
▁jointly	-11868
▁reprodu	-11869
ornograph	-11870
▁ambition	-11871
▁worrying	-11872
▁erscheinen	-11873
▁favourable	-11874
▁repeatedly	-11875
▁Verhofstadt	-11876
▁suggestions	-11877
▁Abhängigkeit	-11878
▁Versicherungs	-11879
aud	-11880
fal	-11881
back	-11882
hear	-11883
reiz	-11884
▁mid	-11885
▁Dort	-11886
▁Flor	-11887
ürzung	-11888
▁Darin	-11889
▁unann	-11890
▁usual	-11891
▁intell	-11892
▁united	-11893
bernahme	-11894
spflicht	-11895
▁Gebrauch	-11896
▁beweisen	-11897
▁illegale	-11898
▁Bedrohung	-11899
▁bezeichnen	-11900
▁harmonised	-11901
▁Fortsetzung	-11902
▁Tätigkeiten	-11903
▁ratification	-11904
▁Jahresbericht	-11905
▁Parlamentarier	-11906
▁congratulating	-11907
Er	-11908
IT	-11909
ls	-11910
züg	-11911
oben	-11912
änge	-11913
▁Lom	-11914
arding	-11915
atures	-11916
ierend	-11917
stuffs	-11918
▁teilt	-11919
▁Studie	-11920
▁Wandel	-11921
▁aktive	-11922
▁refuse	-11923
▁Abfälle	-11924
▁anticip	-11925
▁clarity	-11926
▁council	-11927
▁install	-11928
▁Aufsicht	-11929
▁Fontaine	-11930
▁Nachhalt	-11931
▁gestärkt	-11932
▁abgesehen	-11933
▁decentral	-11934
▁deutschen	-11935
▁existiert	-11936
▁beseitigen	-11937
▁bisherigen	-11938
▁legitimacy	-11939
verletzungen	-11940
▁constitutes	-11941
▁Asylbewerber	-11942
▁Verordnungen	-11943
▁7.	-11944
erer	-11945
rain	-11946
▁12.	-11947
▁sel	-11948
▁vig	-11949
▁Arme	-11950
▁Haug	-11951
▁Lohn	-11952
▁paar	-11953
▁quar	-11954
ikaner	-11955
▁1998,	-11956
▁accur	-11957
▁moved	-11958
essions	-11959
▁Auffor	-11960
▁regeln	-11961
▁depends	-11962
▁ongoing	-11963
▁examined	-11964
▁passiert	-11965
▁religion	-11966
▁angesehen	-11967
▁undertake	-11968
▁Investment	-11969
▁Abstimmungs	-11970
▁Subventionen	-11971
▁einzubeziehen	-11972
IFE	-11973
agn	-11974
ijs	-11975
ops	-11976
erre	-11977
▁Alp	-11978
▁Far	-11979
▁zun	-11980
hrter	-11981
▁Arab	-11982
▁leid	-11983
sebene	-11984
werfen	-11985
▁2002,	-11986
▁Paket	-11987
▁rigor	-11988
isierte	-11989
respect	-11990
▁Kolumb	-11991
▁sincer	-11992
▁Annäher	-11993
▁Minutes	-11994
▁Schicks	-11995
▁customs	-11996
abkommens	-11997
▁Kohäsions	-11998
▁historical	-11999
▁beibehalten	-12000
▁outstanding	-12001
▁untersuchen	-12002
▁Binnenmarkts	-12003
▁geographical	-12004
läß	-12005
üge	-12006
▁Äg	-12007
road	-12008
▁Kau	-12009
igern	-12010
iscal	-12011
uding	-12012
unger	-12013
▁inqu	-12014
▁breach	-12015
▁langem	-12016
gerichts	-12017
▁Culture	-12018
▁airlines	-12019
▁benötigt	-12020
▁deadline	-12021
▁vorzusch	-12022
▁Kategorie	-12023
▁anerkennen	-12024
▁befürworte	-12025
▁controvers	-12026
▁Veränderung	-12027
▁beglückwünsche	-12028
18	-12029
5-07	-12030
erei	-12031
Krise	-12032
Plath	-12033
aming	-12034
jekte	-12035
zicht	-12036
itably	-12037
▁Verts	-12038
oleranz	-12039
▁tonnes	-12040
▁unions	-12041
▁warmly	-12042
▁Randzio	-12043
▁forests	-12044
▁Kraftfahr	-12045
▁contributed	-12046
▁praktischen	-12047
▁sogenannten	-12048
▁ausreichende	-12049
▁bureaucratic	-12050
▁Sozialpolitik	-12051
▁sustainability	-12052
EO	-12053
IV	-12054
▁ap	-12055
board	-12056
iring	-12057
▁Scot	-12058
▁tort	-12059
osselt	-12060
▁Karas	-12061
▁fresh	-12062
▁advert	-12063
▁enorme	-12064
▁fiscal	-12065
▁persec	-12066
▁prelim	-12067
betracht	-12068
republik	-12069
▁Präsenz	-12070
▁Energien	-12071
▁declared	-12072
▁stronger	-12073
▁withdraw	-12074
▁Immunität	-12075
▁suspended	-12076
▁zugänglich	-12077
nez	-12078
fügt	-12079
omet	-12080
place	-12081
zweif	-12082
▁sake	-12083
Christ	-12084
▁Evalu	-12085
▁lesen	-12086
▁müsse	-12087
utreten	-12088
▁Klonen	-12089
▁Sommer	-12090
▁debatt	-12091
▁widmen	-12092
▁Amerika	-12093
▁dispute	-12094
▁driving	-12095
▁hearing	-12096
▁mussten	-12097
▁präsent	-12098
situation	-12099
▁Rückkehr	-12100
▁bewirken	-12101
▁division	-12102
▁informal	-12103
▁yourself	-12104
▁zustande	-12105
▁Vormittag	-12106
▁Konvergenz	-12107
▁bedeutende	-12108
▁wenngleich	-12109
▁xenophobia	-12110
▁Association	-12111
▁Indikatoren	-12112
▁beteiligten	-12113
▁Niederlanden	-12114
▁Arbeitsgruppe	-12115
▁gleichermaßen	-12116
▁stattgefunden	-12117
67	-12118
EF	-12119
lor	-12120
zeg	-12121
asus	-12122
ickt	-12123
▁Prop	-12124
▁Alter	-12125
▁Peijs	-12126
▁error	-12127
unction	-12128
▁Zwecke	-12129
▁donors	-12130
▁sought	-12131
▁Posselt	-12132
▁globale	-12133
▁komplex	-12134
▁turning	-12135
▁überras	-12136
beihilfen	-12137
▁bewiesen	-12138
▁northern	-12139
▁reflects	-12140
▁slightly	-12141
▁Projekten	-12142
▁willkommen	-12143
▁gemeinsames	-12144
▁incorporate	-12145
▁preliminary	-12146
▁Souveränität	-12147
▁Vorstellungen	-12148
▁Mittelmeerraum	-12149
▁sichergestellt	-12150
32	-12151
ser	-12152
ique	-12153
nest	-12154
▁Beg	-12155
▁Mrd	-12156
▁cow	-12157
▁kur	-12158
opard	-12159
pread	-12160
▁Saal	-12161
▁door	-12162
▁fand	-12163
▁keen	-12164
▁nine	-12165
▁würd	-12166
▁Polit	-12167
▁müßte	-12168
bestand	-12169
▁Before	-12170
▁crimin	-12171
▁looked	-12172
▁perpet	-12173
▁ohnehin	-12174
▁declarations	-12175
dok	-12176
adow	-12177
merz	-12178
ürzt	-12179
übung	-12180
▁Haar	-12181
▁Herz	-12182
▁LIFE	-12183
▁Slow	-12184
▁Stad	-12185
chmark	-12186
▁Bösch	-12187
▁north	-12188
lements	-12189
nehmbar	-12190
▁Follow	-12191
ichteten	-12192
▁Angehör	-12193
▁Fernseh	-12194
▁Zunahme	-12195
▁freight	-12196
▁pursued	-12197
▁shortly	-12198
forschung	-12199
fortunate	-12200
idespread	-12201
▁bezahlen	-12202
▁direkten	-12203
▁outbreak	-12204
▁gradually	-12205
▁regulated	-12206
▁unanimous	-12207
▁Anbetracht	-12208
▁Königreichs	-12209
▁gemeinsamer	-12210
▁surrounding	-12211
▁unfortunate	-12212
▁presentation	-12213
▁Landwirtschafts	-12214
35	-12215
enk	-12216
▁GAL	-12217
▁Hul	-12218
▁cyc	-12219
debat	-12220
kreis	-12221
iction	-12222
wahlen	-12223
▁hohem	-12224
verfolg	-12225
▁Effekt	-12226
▁Sollte	-12227
▁agrees	-12228
▁nearly	-12229
▁ökonom	-12230
▁Serbien	-12231
▁bestand	-12232
▁expense	-12233
▁gelangt	-12234
▁picture	-12235
▁species	-12236
▁Bürokrat	-12237
▁Einkommen	-12238
▁begründet	-12239
▁betrieben	-12240
▁Nachmittag	-12241
▁incentives	-12242
▁sämtlichen	-12243
▁Regulierung	-12244
▁Kennzeichnung	-12245
▁significantly	-12246
▁congratulations	-12247
adox	-12248
neim	-12249
▁Abs	-12250
▁rid	-12251
▁Dipl	-12252
▁möge	-12253
rimine	-12254
▁blind	-12255
▁versp	-12256
▁zwölf	-12257
ication	-12258
ikalien	-12259
ressive	-12260
▁Langen	-12261
▁covers	-12262
▁mother	-12263
commerce	-12264
▁Allianz	-12265
▁Ausfuhr	-12266
▁Betrieb	-12267
▁erlaubt	-12268
▁focused	-12269
▁jeopard	-12270
▁verdeut	-12271
▁dieselben	-12272
▁akzeptabel	-12273
▁definitely	-12274
▁fortsetzen	-12275
▁aufgeworfen	-12276
▁eingeschrän	-12277
▁kompliziert	-12278
ILEO	-12279
ental	-12280
mächt	-12281
▁Cuba	-12282
fuhren	-12283
ietnam	-12284
istent	-12285
verbot	-12286
6/2001)	-12287
prozess	-12288
öffnung	-12289
▁Anreiz	-12290
▁Ebenen	-12291
▁claims	-12292
▁outset	-12293
▁turned	-12294
usstsein	-12295
▁Diamant	-12296
▁GALILEO	-12297
▁Kräften	-12298
▁Studien	-12299
▁charter	-12300
▁Gespräch	-12301
▁Americans	-12302
▁Besonders	-12303
▁Vertretung	-12304
▁verpflicht	-12305
▁widespread	-12306
▁educational	-12307
▁Dienststellen	-12308
▁Stellungnahmen	-12309
KS	-12310
bew	-12311
▁55	-12312
know	-12313
▁ASE	-12314
▁HIV	-12315
isons	-12316
rängt	-12317
▁Atom	-12318
ancies	-12319
itives	-12320
kunden	-12321
▁Tunis	-12322
▁judge	-12323
▁Rinder	-12324
▁geschä	-12325
▁hazard	-12326
▁length	-12327
▁spring	-12328
▁wahren	-12329
gehenden	-12330
▁hundred	-12331
▁largest	-12332
▁resumed	-12333
katastrop	-12334
▁Demonstr	-12335
▁erweisen	-12336
politische	-12337
▁Austausch	-12338
▁Verträgen	-12339
▁demograph	-12340
▁gebilligt	-12341
▁gestaltet	-12342
▁unanimity	-12343
▁Annäherung	-12344
▁Widerstand	-12345
▁vernünftig	-12346
▁consequence	-12347
▁hergestellt	-12348
▁ratifiziert	-12349
▁angemessenen	-12350
▁Unterrichtung	-12351
▁hervorragende	-12352
aka	-12353
üss	-12354
▁34	-12355
▁hy	-12356
▁Dad	-12357
▁Vel	-12358
▁ton	-12359
using	-12360
ätzen	-12361
▁lawy	-12362
▁Genoa	-12363
▁Refer	-12364
▁Veter	-12365
▁boost	-12366
▁newsp	-12367
▁Fakten	-12368
▁fourth	-12369
▁killed	-12370
▁nahezu	-12371
▁Verschm	-12372
▁reserve	-12373
▁älteren	-12374
▁regarded	-12375
▁strictly	-12376
▁students	-12377
▁weakness	-12378
ländischen	-12379
produktion	-12380
▁Vertrauens	-12381
▁regionaler	-12382
▁zusätzlich	-12383
▁Luftverkehr	-12384
Mitgliedstaaten	-12385
oud	-12386
▁IV	-12387
ador	-12388
▁13,	-12389
▁ren	-12390
▁yes	-12391
ergie	-12392
heber	-12393
igert	-12394
▁Prov	-12395
▁mere	-12396
▁norm	-12397
erusal	-12398
▁Subst	-12399
ifelong	-12400
▁Umfeld	-12401
▁fühlen	-12402
▁owners	-12403
▁streng	-12404
bestände	-12405
erusalem	-12406
schließt	-12407
▁Bekannt	-12408
▁Dadurch	-12409
▁leaving	-12410
▁warning	-12411
neimittel	-12412
▁empfehlen	-12413
▁gestattet	-12414
▁Ausführung	-12415
▁underlying	-12416
▁persönliche	-12417
▁Journalisten	-12418
▁biotechnology	-12419
▁Biotechnologie	-12420
19	-12421
Med	-12422
▁0,	-12423
▁0.	-12424
▁dur	-12425
▁ört	-12426
hetor	-12427
orten	-12428
▁surp	-12429
▁Genua	-12430
▁Texte	-12431
▁Verbr	-12432
▁kohär	-12433
quellen	-12434
sprüche	-12435
▁Freunde	-12436
▁Kranken	-12437
▁Planung	-12438
▁begünst	-12439
▁creates	-12440
▁feeding	-12441
abgeordne	-12442
bereichen	-12443
▁Jahrzehn	-12444
▁Wortmeld	-12445
▁directed	-12446
▁movements	-12447
▁äußerster	-12448
▁wiederhole	-12449
▁accompanied	-12450
▁historischen	-12451
RB	-12452
▁44	-12453
aire	-12454
atom	-12455
pack	-12456
▁Rec	-12457
▁Zul	-12458
▁arg	-12459
▁Dikt	-12460
▁GMOs	-12461
▁Haut	-12462
▁Jung	-12463
▁Lehr	-12464
endung	-12465
▁essen	-12466
▁stolz	-12467
regular	-12468
ungsbew	-12469
▁Darauf	-12470
▁Monday	-12471
▁redund	-12472
▁verwir	-12473
iscrimin	-12474
ktivität	-12475
▁Europar	-12476
▁Fristen	-12477
▁breiten	-12478
▁gefragt	-12479
▁showing	-12480
▁stammen	-12481
▁Northern	-12482
▁treaties	-12483
▁ausgehend	-12484
▁deutliche	-12485
▁receiving	-12486
▁sozusagen	-12487
▁amtierende	-12488
▁corruption	-12489
▁Chemikalien	-12490
▁furthermore	-12491
▁Verzögerungen	-12492
odex	-12493
olge	-12494
uert	-12495
view	-12496
▁ECO	-12497
ierra	-12498
▁1992	-12499
attung	-12500
▁Erdöl	-12501
▁tritt	-12502
▁Fourth	-12503
▁Kriegs	-12504
▁emission	-12505
▁ersuchen	-12506
▁regulate	-12507
ranational	-12508
▁Gewährung	-12509
▁succeeded	-12510
▁vereinbart	-12511
▁Ratspräsidenten	-12512
Ar	-12513
▁Oz	-12514
ames	-12515
▁Log	-12516
▁rul	-12517
stock	-12518
▁dism	-12519
▁trad	-12520
rating	-12521
▁posts	-12522
▁swift	-12523
holders	-12524
istical	-12525
▁geziel	-12526
▁larger	-12527
▁retire	-12528
▁zwangs	-12529
▁Branche	-12530
▁ceiling	-12531
▁schlage	-12532
▁Beihilfe	-12533
▁folglich	-12534
▁ständigen	-12535
▁beobachten	-12536
▁respecting	-12537
▁Mechanismus	-12538
▁efficiently	-12539
▁unabhängige	-12540
▁Parliamentary	-12541
▁Diamantopoulou	-12542
▁Kommunikations	-12543
▁Dienstleistungs	-12544
38	-12545
üb	-12546
bas	-12547
rab	-12548
roc	-12549
hance	-12550
kehrt	-12551
▁Einm	-12552
▁Sehr	-12553
▁Weil	-12554
▁Beför	-12555
▁Genau	-12556
▁Kluft	-12557
▁Regul	-12558
▁anzup	-12559
ountain	-12560
zufolge	-12561
▁Montag	-12562
▁fehlen	-12563
▁gather	-12564
▁musste	-12565
▁raises	-12566
agements	-12567
▁Erinner	-12568
▁Haarder	-12569
▁Vorfeld	-12570
▁stützen	-12571
ständigen	-12572
▁Tausende	-12573
▁Trotzdem	-12574
▁judgment	-12575
▁modified	-12576
▁physical	-12577
▁pursuant	-12578
▁sympathy	-12579
sprogramms	-12580
▁encouraged	-12581
▁expressing	-12582
▁praktische	-12583
▁settlement	-12584
▁Territorium	-12585
▁erheblichen	-12586
▁vernünftige	-12587
▁schrittweise	-12588
▁Haushaltsjahr	-12589
▁Palästinenser	-12590
▁8.	-12591
ites	-12592
ährt	-12593
▁Fus	-12594
house	-12595
▁Grad	-12596
▁brut	-12597
▁twel	-12598
igsten	-12599
zellen	-12600
▁ersta	-12601
▁flood	-12602
▁kurze	-12603
▁trace	-12604
gehende	-12605
▁disreg	-12606
▁europa	-12607
▁gekenn	-12608
▁qualit	-12609
▁sagten	-12610
▁Gebiets	-12611
▁engaged	-12612
▁defining	-12613
▁gewisser	-12614
▁Initiativ	-12615
▁Luftfahrt	-12616
▁offenkund	-12617
▁pornograph	-12618
▁Dafürhalten	-12619
▁natürlichen	-12620
▁Wissenschaftler	-12621
hel	-12622
ieh	-12623
iro	-12624
▁17.	-12625
▁Sav	-12626
liste	-12627
quote	-12628
▁Sind	-12629
▁bott	-12630
▁eyes	-12631
▁Tempo	-12632
▁Zentr	-12633
▁sheep	-12634
▁Bauern	-12635
▁banned	-12636
▁deaths	-12637
▁Auswahl	-12638
▁Fragest	-12639
▁Vietnam	-12640
▁enhance	-12641
▁irische	-12642
▁konsult	-12643
▁mangeln	-12644
tschaften	-12645
vertreter	-12646
▁arbeitet	-12647
▁aufricht	-12648
▁disputes	-12649
▁externen	-12650
▁nützlich	-12651
▁reaching	-12652
▁Verfolgung	-12653
▁derartigen	-12654
▁derjenigen	-12655
gesetzgebung	-12656
▁Unternehmer	-12657
▁eigentliche	-12658
▁verabschiede	-12659
▁Nachhaltigkeit	-12660
Or	-12661
zer	-12662
andt	-12663
ware	-12664
ühen	-12665
▁lob	-12666
▁sav	-12667
▁weg	-12668
chnet	-12669
iated	-12670
▁Maes	-12671
ossier	-12672
▁sicht	-12673
▁Haider	-12674
▁notice	-12675
isations	-12676
▁Unserer	-12677
▁erheben	-12678
▁gedenkt	-12679
▁hierbei	-12680
▁jeweils	-12681
▁leistet	-12682
▁Scotland	-12683
▁modernen	-12684
zentration	-12685
▁eventuell	-12686
▁increases	-12687
▁prevented	-12688
▁Aufenthalts	-12689
▁Nonetheless	-12690
ungsmaßnahmen	-12691
▁ursprünglich	-12692
cro	-12693
down	-12694
itle	-12695
zerr	-12696
▁CAP	-12697
▁Del	-12698
▁Wur	-12699
▁cha	-12700
gling	-12701
icken	-12702
known	-12703
rolle	-12704
▁Aids	-12705
▁hart	-12706
▁kümm	-12707
ancing	-12708
▁Versp	-12709
▁begeg	-12710
▁cheap	-12711
▁crops	-12712
▁hypoc	-12713
▁junge	-12714
▁shape	-12715
▁track	-12716
▁Anhang	-12717
▁Opfern	-12718
▁Vision	-12719
▁explos	-12720
▁nobody	-12721
▁Einfluß	-12722
▁kritisch	-12723
▁meantime	-12724
▁reliable	-12725
▁Absichten	-12726
▁Sitzungen	-12727
▁chemicals	-12728
▁executive	-12729
▁gesichert	-12730
▁inwieweit	-12731
▁irregular	-12732
▁überprüft	-12733
bevölkerung	-12734
▁generation	-12735
▁Verfassungs	-12736
▁Verzögerung	-12737
▁Finanziellen	-12738
▁jurisdiction	-12739
▁afrikanischen	-12740
▁Haushaltslinie	-12741
1/	-12742
SA	-12743
ca	-12744
dac	-12745
emit	-12746
ussy	-12747
▁Amt	-12748
▁ETA	-12749
▁GAP	-12750
▁Bill	-12751
▁depr	-12752
asting	-12753
igende	-12754
stände	-12755
▁facto	-12756
▁ideal	-12757
▁radik	-12758
fähigen	-12759
ounting	-12760
ziellen	-12761
▁Wähler	-12762
▁plural	-12763
▁vorank	-12764
building	-12765
strichen	-12766
▁Gebäude	-12767
▁proport	-12768
▁seekers	-12769
▁apparent	-12770
▁beiträgt	-12771
▁unabding	-12772
▁harmonise	-12773
▁Beobachter	-12774
▁Umstellung	-12775
▁Unterdrück	-12776
▁kritisiert	-12777
▁conventions	-12778
▁counterfeit	-12779
▁öffentlicher	-12780
▁beträchtliche	-12781
adem	-12782
iori	-12783
▁EURO	-12784
▁Most	-12785
▁Föder	-12786
▁Komit	-12787
▁tools	-12788
1/2001)	-12789
ministr	-12790
▁Tonnen	-12791
▁detrim	-12792
▁minute	-12793
spartner	-12794
▁Drittel	-12795
▁Urheber	-12796
▁arising	-12797
▁broader	-12798
▁decades	-12799
▁raising	-12800
▁umfasst	-12801
▁Tragödie	-12802
▁bedenken	-12803
abstimmung	-12804
ressourcen	-12805
▁Betreiber	-12806
▁Gesetzgeb	-12807
▁Kolumbien	-12808
▁behauptet	-12809
▁vorrangig	-12810
▁Heimatland	-12811
▁compatible	-12812
▁einzugehen	-12813
▁überwachen	-12814
▁citizenship	-12815
▁experienced	-12816
▁hinzuweisen	-12817
▁Ratsvorsitzes	-12818
ancy	-12819
▁Get	-12820
▁dim	-12821
fisch	-12822
holen	-12823
schul	-12824
▁Verd	-12825
▁puts	-12826
1/2000	-12827
▁poten	-12828
sichtig	-12829
▁Können	-12830
▁Persön	-12831
▁Statut	-12832
▁tunnel	-12833
▁voller	-12834
methoden	-12835
probleme	-12836
reformen	-12837
▁privile	-12838
▁rechnen	-12839
▁Gefangen	-12840
▁observed	-12841
▁Fraktions	-12842
▁monitored	-12843
▁recycling	-12844
▁stärksten	-12845
▁restrictive	-12846
▁uncertainty	-12847
▁demonstrates	-12848
▁subsequently	-12849
▁konstruktiven	-12850
▁bevorstehenden	-12851
gas	-12852
mäh	-12853
umn	-12854
trem	-12855
▁Pos	-12856
▁Six	-12857
achte	-12858
reize	-12859
ussen	-12860
▁Educ	-12861
▁fire	-12862
▁ries	-12863
reform	-12864
zeiten	-12865
▁Wales	-12866
▁frank	-12867
▁match	-12868
▁theor	-12869
▁zweif	-12870
rechung	-12871
▁forese	-12872
▁remote	-12873
▁sphere	-12874
gekommen	-12875
▁Nachdem	-12876
▁Plenars	-12877
▁Rechtsp	-12878
▁science	-12879
▁thousand	-12880
▁Paragraph	-12881
▁hazardous	-12882
▁verdienen	-12883
finanzierung	-12884
▁Fragestunde	-12885
▁Komitologie	-12886
▁confidential	-12887
▁gefährlichen	-12888
▁successfully	-12889
▁zwangsläufig	-12890
▁amerikanische	-12891
▁justification	-12892
▁Dringlichkeits	-12893
institutionellen	-12894
27	-12895
6(	-12896
Par	-12897
iko	-12898
ftet	-12899
habt	-12900
iche	-12901
osex	-12902
stab	-12903
▁19.	-12904
▁Luc	-12905
▁asp	-12906
erted	-12907
izeil	-12908
wurfs	-12909
▁Gale	-12910
▁city	-12911
gänzen	-12912
▁Medik	-12913
▁Somit	-12914
▁Urspr	-12915
▁embar	-12916
▁könne	-12917
▁veget	-12918
sektors	-12919
▁endors	-12920
▁exempt	-12921
▁island	-12922
▁talked	-12923
▁twelve	-12924
appropri	-12925
willigen	-12926
▁geprägt	-12927
▁lasting	-12928
▁sending	-12929
▁vorüber	-12930
ervativen	-12931
▁tangible	-12932
▁Vertrages	-12933
▁ethnischen	-12934
▁respective	-12935
▁weltweiten	-12936
▁Flüchtlingen	-12937
▁Verteidigungs	-12938
uay	-12939
▁39	-12940
▁Ta	-12941
endt	-12942
itze	-12943
Kenna	-12944
▁Bang	-12945
▁army	-12946
▁Ägyp	-12947
führte	-12948
ounded	-12949
stands	-12950
▁Could	-12951
▁Suche	-12952
▁Titel	-12953
▁davor	-12954
▁macro	-12955
▁schön	-12956
▁score	-12957
▁sites	-12958
ichtete	-12959
verhält	-12960
▁Mexico	-12961
▁Schott	-12962
▁Sierra	-12963
▁ignore	-12964
▁reveal	-12965
anspruch	-12966
ccession	-12967
gelungen	-12968
▁McKenna	-12969
▁offices	-12970
▁scrutin	-12971
▁Hinweise	-12972
▁disagree	-12973
▁released	-12974
▁Einnahmen	-12975
▁Jerusalem	-12976
▁Protokolls	-12977
▁Vorbehalte	-12978
▁equivalent	-12979
▁Kompetenzen	-12980
▁effizienter	-12981
▁preparatory	-12982
▁respektiert	-12983
▁supranational	-12984
▁Demokratischen	-12985
▁verantwortungs	-12986
yle	-12987
rist	-12988
▁Cox	-12989
▁Hol	-12990
redit	-12991
zahlt	-12992
▁Again	-12993
▁Bevor	-12994
▁Zerst	-12995
olitano	-12996
▁Detail	-12997
▁Sofort	-12998
▁Stunde	-12999
▁Vorder	-13000
▁battle	-13001
▁cattle	-13002
▁genehm	-13003
▁string	-13004
▁viable	-13005
mögliche	-13006
▁Galeote	-13007
▁Islamic	-13008
▁strenge	-13009
vereinbar	-13010
▁ergänzen	-13011
▁Education	-13012
▁Fahrzeuge	-13013
▁electoral	-13014
▁übereinst	-13015
▁Bürokratie	-13016
▁Erwägungen	-13017
▁Konflikten	-13018
▁Napolitano	-13019
▁leadership	-13020
▁amtierenden	-13021
▁examination	-13022
▁umfassender	-13023
▁Generationen	-13024
▁Steuerzahler	-13025
▁legislativen	-13026
▁umfangreiche	-13027
DC	-13028
gut	-13029
rea	-13030
aron	-13031
▁10.	-13032
▁Dup	-13033
▁TAC	-13034
▁Tai	-13035
▁ICAO	-13036
▁Leid	-13037
▁Sens	-13038
▁Verg	-13039
▁feas	-13040
▁scen	-13041
▁Zusch	-13042
▁alter	-13043
▁looks	-13044
▁shame	-13045
gewogen	-13046
ulating	-13047
▁bewaff	-13048
employed	-13049
schieben	-13050
▁Eurodac	-13051
▁drängen	-13052
▁geklärt	-13053
▁obliegt	-13054
▁verwirk	-13055
▁Kulturen	-13056
▁erstmals	-13057
▁facility	-13058
▁indicate	-13059
▁promoted	-13060
▁shipping	-13061
regelungen	-13062
▁certainty	-13063
▁everybody	-13064
▁sincerely	-13065
▁Demokraten	-13066
▁Gesamtheit	-13067
▁monopolies	-13068
▁Betroffenen	-13069
▁accordingly	-13070
▁zukünftigen	-13071
▁aufgegriffen	-13072
▁israelischen	-13073
▁konstruktive	-13074
eins	-13075
hood	-13076
▁Its	-13077
atzid	-13078
ifies	-13079
leute	-13080
werke	-13081
▁conj	-13082
recher	-13083
▁Alles	-13084
▁earth	-13085
▁herbe	-13086
falussy	-13087
ichtung	-13088
▁Hatzid	-13089
▁Zusätz	-13090
▁marine	-13091
▁marked	-13092
▁öffnen	-13093
▁Euratom	-13094
▁Nigeria	-13095
▁surplus	-13096
programme	-13097
▁dasselbe	-13098
▁scheinen	-13099
▁umgehend	-13100
▁zukommen	-13101
respective	-13102
▁Pflichten	-13103
▁buildings	-13104
▁expensive	-13105
▁negotiate	-13106
▁personnel	-13107
▁wholehear	-13108
▁Erinnerung	-13109
▁Hatzidakis	-13110
▁Korruption	-13111
▁Menschheit	-13112
▁ausgeführt	-13113
▁beunruhigt	-13114
▁controlled	-13115
▁negotiated	-13116
▁systematic	-13117
▁untersucht	-13118
Mediterranean	-13119
▁Arzneimittel	-13120
▁beschleunigen	-13121
▁terroristischen	-13122
läg	-13123
nar	-13124
irma	-13125
▁(200	-13126
▁Pirk	-13127
eitern	-13128
partei	-13129
▁Burma	-13130
▁Strom	-13131
▁image	-13132
▁zählt	-13133
liament	-13134
▁Safety	-13135
▁Vorgän	-13136
▁assets	-13137
▁heißen	-13138
▁strike	-13139
Vertrags	-13140
▁Gremium	-13141
▁clearer	-13142
folgerung	-13143
▁Differen	-13144
▁polizeil	-13145
▁unannehm	-13146
freiheiten	-13147
▁angestreb	-13148
▁undermine	-13149
verständnis	-13150
▁Schokolade	-13151
▁candidates	-13152
▁effiziente	-13153
▁verstärkten	-13154
▁alternatives	-13155
▁erneuerbaren	-13156
▁approximately	-13157
▁Beschränkungen	-13158
FIN	-13159
gal	-13160
opp	-13161
ößt	-13162
größ	-13163
iary	-13164
▁Rum	-13165
▁TSE	-13166
eiden	-13167
ämpft	-13168
▁Satz	-13169
▁Time	-13170
mellen	-13171
region	-13172
ändler	-13173
ürgern	-13174
▁Leone	-13175
▁euros	-13176
▁farms	-13177
3/2001)	-13178
igation	-13179
▁Hilfen	-13180
▁zuerst	-13181
sprochen	-13182
▁Similar	-13183
▁kleiner	-13184
▁observe	-13185
▁Finanzen	-13186
▁eröffnet	-13187
▁standing	-13188
▁Following	-13189
▁observers	-13190
▁philosoph	-13191
▁rejection	-13192
▁wirksamen	-13193
▁bureaucracy	-13194
▁regrettable	-13195
▁Aufforderung	-13196
▁economically	-13197
▁intelligence	-13198
▁elektronische	-13199
▁extraordinary	-13200
▁infrastructures	-13201
▁Ke	-13202
imor	-13203
uden	-13204
▁Ple	-13205
▁Syr	-13206
▁Prüf	-13207
▁engl	-13208
▁hous	-13209
rators	-13210
▁liked	-13211
▁train	-13212
▁wofür	-13213
▁Dupuis	-13214
▁Konzep	-13215
▁Pirker	-13216
▁Textes	-13217
▁einher	-13218
▁frustr	-13219
▁solved	-13220
▁weisen	-13221
▁Ausland	-13222
▁Konkurr	-13223
▁distort	-13224
▁korrekt	-13225
▁logical	-13226
▁revenue	-13227
▁threats	-13228
▁Chairman	-13229
▁Partnern	-13230
▁Funktions	-13231
▁Produkten	-13232
▁campaigns	-13233
▁dictators	-13234
▁threatened	-13235
▁zuständige	-13236
▁Besteuerung	-13237
▁Zielsetzung	-13238
▁inspections	-13239
▁grundlegender	-13240
▁verwirklichen	-13241
55	-13242
unst	-13243
▁Dim	-13244
ambod	-13245
iment	-13246
leted	-13247
ossen	-13248
ungsk	-13249
▁Beim	-13250
▁Ster	-13251
ausend	-13252
waffen	-13253
▁Lehne	-13254
▁Wille	-13255
▁bedür	-13256
▁coinc	-13257
▁remit	-13258
▁belief	-13259
▁manche	-13260
▁transe	-13261
wegungen	-13262
▁Profess	-13263
▁revised	-13264
▁gewonnen	-13265
▁Schicksal	-13266
▁einschläg	-13267
▁incentive	-13268
▁permitted	-13269
▁underline	-13270
▁Lamfalussy	-13271
▁enttäuscht	-13272
▁seinerzeit	-13273
▁Ereignissen	-13274
▁Fähigkeiten	-13275
▁Vordergrund	-13276
▁exclusively	-13277
▁gefährliche	-13278
▁organisieren	-13279
▁organisierte	-13280
▁transnational	-13281
▁classification	-13282
funk	-13283
omin	-13284
üste	-13285
▁Kur	-13286
ansch	-13287
▁Nähe	-13288
▁doll	-13289
▁drop	-13290
▁Front	-13291
▁solid	-13292
gegeben	-13293
▁ECOFIN	-13294
▁Reicht	-13295
▁Unfall	-13296
▁allmäh	-13297
▁became	-13298
▁dispar	-13299
▁freely	-13300
▁lenken	-13301
▁selten	-13302
▁Conserv	-13303
▁großzüg	-13304
▁admitted	-13305
▁deterior	-13306
▁reported	-13307
▁derselben	-13308
▁disappear	-13309
▁allocation	-13310
▁deutlicher	-13311
▁klarstellen	-13312
▁programming	-13313
▁wünschenswert	-13314
▁hervorragenden	-13315
▁Geltungsbereich	-13316
ohl	-13317
olly	-13318
ondo	-13319
rüst	-13320
▁kos	-13321
▁EMAS	-13322
▁Merk	-13323
▁Roma	-13324
lehnen	-13325
umping	-13326
zenten	-13327
▁Aznar	-13328
▁unres	-13329
Program	-13330
▁Ferber	-13331
▁nament	-13332
▁search	-13333
▁stages	-13334
▁tariff	-13335
▁Stauner	-13336
▁Technik	-13337
▁einiges	-13338
▁ersetzt	-13339
▁lessons	-13340
▁tribute	-13341
▁verläng	-13342
▁civilian	-13343
▁intermod	-13344
▁jugoslaw	-13345
▁profound	-13346
▁Otherwise	-13347
▁anstreben	-13348
▁medicines	-13349
▁südlichen	-13350
▁Beurteilung	-13351
▁Vorsitzende	-13352
▁historische	-13353
▁populations	-13354
▁schriftlich	-13355
▁ausgewogenen	-13356
▁disappointed	-13357
▁konzentriert	-13358
▁Menschenrechten	-13359
eu	-13360
die	-13361
Corm	-13362
▁GDP	-13363
erium	-13364
ohlen	-13365
▁Kuba	-13366
▁hilf	-13367
▁schö	-13368
▁wind	-13369
hrendt	-13370
▁betra	-13371
▁items	-13372
▁zügig	-13373
Cormick	-13374
actions	-13375
▁Bosnia	-13376
▁incred	-13377
▁England	-13378
▁Haftung	-13379
▁Verkauf	-13380
▁Wechsel	-13381
▁bedroht	-13382
▁vereinf	-13383
▁covering	-13384
▁2000-2006	-13385
▁Tatsachen	-13386
▁gewählten	-13387
▁Ausschüssen	-13388
▁unterliegen	-13389
▁verschaffen	-13390
▁übermittelt	-13391
▁Gerichtshofs	-13392
▁consequently	-13393
▁conservation	-13394
▁eingerichtet	-13395
▁verpflichten	-13396
▁schrecklichen	-13397
▁verschiedener	-13398
▁durchgeführten	-13399
57	-13400
Un	-13401
pal	-13402
vak	-13403
wäl	-13404
▁65	-13405
undi	-13406
▁15.	-13407
igned	-13408
irmen	-13409
trägt	-13410
▁völl	-13411
▁wozu	-13412
weiten	-13413
▁analy	-13414
▁compe	-13415
▁innoc	-13416
▁remed	-13417
bindung	-13418
sträger	-13419
▁Genfer	-13420
▁leader	-13421
Behrendt	-13422
reaching	-13423
▁Bosnien	-13424
▁Schweiz	-13425
▁jeglich	-13426
▁scandal	-13427
▁stellte	-13428
▁contacts	-13429
▁erlauben	-13430
▁finances	-13431
▁geehrten	-13432
▁genießen	-13433
▁expressly	-13434
▁ungerecht	-13435
▁durchsetzen	-13436
▁Alternativen	-13437
▁Arbeitsweise	-13438
▁langfristige	-13439
▁angesprochenen	-13440
▁vorangegangenen	-13441
Weg	-13442
igo	-13443
rum	-13444
▁anb	-13445
▁miß	-13446
anzig	-13447
astet	-13448
teien	-13449
▁Anti	-13450
▁Gent	-13451
▁cuts	-13452
preise	-13453
tokoll	-13454
ulling	-13455
▁Hence	-13456
▁firms	-13457
▁hoher	-13458
▁prime	-13459
▁quota	-13460
ungsbef	-13461
▁Please	-13462
▁Schwar	-13463
▁Sprach	-13464
▁barbar	-13465
▁chines	-13466
▁rasche	-13467
astungen	-13468
▁Banglad	-13469
▁Niemand	-13470
▁ergänzt	-13471
▁lokaler	-13472
▁promise	-13473
▁recital	-13474
▁refused	-13475
▁theoret	-13476
▁Albanian	-13477
▁eingesch	-13478
▁handling	-13479
▁suggests	-13480
▁ähnliche	-13481
operations	-13482
▁Naturally	-13483
▁gewünscht	-13484
▁Emissionen	-13485
▁percentage	-13486
▁traditions	-13487
▁Drittstaats	-13488
▁wissenschaft	-13489
▁ökologischen	-13490
62	-13491
no	-13492
fel	-13493
hat	-13494
oli	-13495
ares	-13496
▁Act	-13497
▁App	-13498
▁dog	-13499
▁hes	-13500
neten	-13501
▁Maij	-13502
▁Werk	-13503
Weggen	-13504
▁domin	-13505
▁fixed	-13506
spruchs	-13507
zuheben	-13508
▁Erfolge	-13509
▁Special	-13510
▁Aussagen	-13511
▁promises	-13512
▁alongside	-13513
▁befürchte	-13514
▁eliminate	-13515
▁vermieden	-13516
▁beinhalten	-13517
▁inevitably	-13518
▁resistance	-13519
▁Verbrechens	-13520
▁distributed	-13521
▁einbeziehen	-13522
▁umweltfreund	-13523
▁Lateinamerika	-13524
▁Mitentscheidung	-13525
ubs	-13526
▁Jo	-13527
hilf	-13528
ower	-13529
▁150	-13530
▁Air	-13531
uldig	-13532
ulous	-13533
▁enge	-13534
▁unum	-13535
ashion	-13536
limmer	-13537
▁Licht	-13538
▁Lucas	-13539
▁begun	-13540
▁ineff	-13541
▁tough	-13542
▁vigil	-13543
stitute	-13544
ändigen	-13545
▁harass	-13546
▁klären	-13547
▁kommun	-13548
▁tenden	-13549
gleichen	-13550
▁declare	-13551
▁divided	-13552
▁interim	-13553
ederation	-13554
▁Großteil	-13555
▁höchsten	-13556
öffentlich	-13557
▁Kernkraft	-13558
▁einführen	-13559
▁gefährden	-13560
▁zentralen	-13561
änglichkeit	-13562
▁retirement	-13563
▁Wichtigkeit	-13564
▁generations	-13565
▁pornography	-13566
▁gegenseitige	-13567
▁perspectives	-13568
▁transactions	-13569
▁unterstrichen	-13570
ask	-13571
▁IM	-13572
▁UNI	-13573
arked	-13574
kapaz	-13575
nelle	-13576
weich	-13577
▁diox	-13578
▁rück	-13579
▁Innen	-13580
▁Motor	-13581
▁blame	-13582
▁comit	-13583
▁enshr	-13584
▁lists	-13585
▁confin	-13586
▁corpor	-13587
▁unique	-13588
▁Anreize	-13589
▁Federal	-13590
▁Völkern	-13591
▁convers	-13592
▁invited	-13593
▁paradox	-13594
bewertung	-13595
▁Kontakte	-13596
▁enabling	-13597
▁listened	-13598
▁targeted	-13599
zuarbeiten	-13600
▁erzielten	-13601
▁schnellst	-13602
▁Handlungen	-13603
▁MacCormick	-13604
▁Obergrenze	-13605
▁Schengener	-13606
▁enforcement	-13607
▁explanatory	-13608
▁Intervention	-13609
▁langfristigen	-13610
▁Bewirtschaftung	-13611
▁characteristics	-13612
1(	-13613
▁43	-13614
RBAN	-13615
rags	-13616
reif	-13617
▁140	-13618
▁Alt	-13619
▁USD	-13620
rägen	-13621
werks	-13622
▁pace	-13623
▁rass	-13624
▁sech	-13625
▁stem	-13626
▁subs	-13627
▁team	-13628
▁Block	-13629
▁Fiori	-13630
▁Schwä	-13631
▁hoped	-13632
▁purch	-13633
debatte	-13634
▁domain	-13635
▁hierzu	-13636
▁propag	-13637
▁victim	-13638
▁wirken	-13639
▁geringe	-13640
▁missing	-13641
▁praktiz	-13642
kriterien	-13643
▁Bestände	-13644
▁mountain	-13645
▁preserve	-13646
▁struggle	-13647
bestimmung	-13648
▁accepting	-13649
▁displaced	-13650
▁einhalten	-13651
▁gehandelt	-13652
▁hopefully	-13653
▁transfers	-13654
instrumente	-13655
ssicherheit	-13656
▁ausgegeben	-13657
▁comparison	-13658
▁eventually	-13659
▁subsequent	-13660
▁Genehmigung	-13661
▁inakzeptabel	-13662
69	-13663
US	-13664
bie	-13665
▁9.	-13666
aken	-13667
bett	-13668
dete	-13669
läne	-13670
5-017	-13671
ifest	-13672
merkt	-13673
lichem	-13674
▁began	-13675
▁minor	-13676
▁ozone	-13677
▁route	-13678
gericht	-13679
▁Mexiko	-13680
▁Saddam	-13681
▁festen	-13682
▁funded	-13683
▁Behaupt	-13684
▁Monopol	-13685
▁größter	-13686
▁savings	-13687
verhütung	-13688
weisungen	-13689
▁Israelis	-13690
▁geforder	-13691
▁geringer	-13692
▁imperial	-13693
▁sections	-13694
▁Konflikts	-13695
▁catastrop	-13696
▁stärkeren	-13697
▁taxpayers	-13698
berichterst	-13699
▁Begrenzung	-13700
▁Missbrauch	-13701
▁verursachen	-13702
▁respektieren	-13703
▁Entschädigung	-13704
▁erfolgreichen	-13705
▁vorzuschlagen	-13706
▁Rahmenprogramm	-13707
▁beeinträchtigt	-13708
▁diesbezügliche	-13709
Her	-13710
how	-13711
kul	-13712
▁Kn	-13713
▁Cze	-13714
5-000	-13715
icing	-13716
itzer	-13717
oured	-13718
ugnis	-13719
▁Kauf	-13720
▁merg	-13721
▁smug	-13722
▁uran	-13723
orters	-13724
sphase	-13725
▁Dover	-13726
▁fores	-13727
4/2001)	-13728
unately	-13729
▁Eltern	-13730
▁Sensib	-13731
▁divide	-13732
▁justiz	-13733
▁senten	-13734
▁Kontext	-13735
▁abolish	-13736
▁lacking	-13737
▁Viertens	-13738
▁employed	-13739
▁irrespon	-13740
▁replaced	-13741
▁Ergänzung	-13742
▁Interoper	-13743
▁diskrimin	-13744
▁verbieten	-13745
geschrieben	-13746
▁Gesprächen	-13747
▁Prävention	-13748
▁comitology	-13749
▁containing	-13750
▁recognises	-13751
▁einzuhalten	-13752
▁einzuleiten	-13753
▁schwieriger	-13754
▁Sozialpartner	-13755
▁participating	-13756
bl	-13757
Sch	-13758
ips	-13759
utt	-13760
afen	-13761
heil	-13762
look	-13763
quin	-13764
astic	-13765
ifall	-13766
▁Appe	-13767
mengen	-13768
merken	-13769
wasser	-13770
▁abges	-13771
▁unzul	-13772
istency	-13773
jährige	-13774
ugtuung	-13775
▁Werden	-13776
▁desper	-13777
▁hinein	-13778
▁wählen	-13779
▁Algeria	-13780
▁Busquin	-13781
▁Fußball	-13782
▁Schiffs	-13783
▁Strafen	-13784
▁genauer	-13785
▁gericht	-13786
▁pretext	-13787
▁Ausübung	-13788
▁Redezeit	-13789
▁aussehen	-13790
▁bereiten	-13791
▁coalition	-13792
▁incidents	-13793
▁sexuellen	-13794
▁Genugtuung	-13795
▁acceptance	-13796
▁ernsthafte	-13797
▁preventive	-13798
▁reduzieren	-13799
▁advertising	-13800
▁Auffassungen	-13801
▁strategische	-13802
▁Befürchtungen	-13803
▁modernisation	-13804
▁demokratischer	-13805
Das	-13806
etus	-13807
otum	-13808
rung	-13809
ößen	-13810
▁14.	-13811
▁Bow	-13812
▁win	-13813
ahara	-13814
emiss	-13815
rufen	-13816
▁1991	-13817
▁Ozon	-13818
▁rund	-13819
▁umge	-13820
rungen	-13821
tellte	-13822
▁David	-13823
▁Still	-13824
▁forec	-13825
▁Ausbild	-13826
▁Hautala	-13827
▁Organen	-13828
▁Rahmens	-13829
▁angehen	-13830
▁choices	-13831
▁herange	-13832
▁interne	-13833
▁liefern	-13834
▁misunder	-13835
▁outlined	-13836
▁resource	-13837
▁stations	-13838
demokraten	-13839
greifenden	-13840
▁Regarding	-13841
▁effektive	-13842
▁folgendes	-13843
▁glaubwürd	-13844
▁definieren	-13845
▁Anwesenheit	-13846
▁Stellenwert	-13847
▁Verhaltensk	-13848
▁abgeschafft	-13849
▁Einschränkung	-13850
▁Veröffentlich	-13851
49	-13852
dro	-13853
▁ED	-13854
▁Pf	-13855
▁na	-13856
▁hit	-13857
level	-13858
▁Pack	-13859
▁arch	-13860
▁visa	-13861
▁geein	-13862
▁hohes	-13863
▁kolle	-13864
gemeine	-13865
reicher	-13866
▁afghan	-13867
▁lehnen	-13868
▁potent	-13869
▁reconc	-13870
▁senken	-13871
▁Corbett	-13872
▁Unfälle	-13873
▁arrived	-13874
▁concent	-13875
▁genetic	-13876
verbrauch	-13877
▁Folglich	-13878
▁arrested	-13879
▁ausdrück	-13880
▁marginal	-13881
▁monopoly	-13882
verwaltung	-13883
▁Inflation	-13884
▁erweitern	-13885
▁Fischereise	-13886
▁conjunction	-13887
▁Kooperations	-13888
▁incineration	-13889
▁irrespective	-13890
▁contradiction	-13891
▁Grundfreiheiten	-13892
68	-13893
änz	-13894
▁Av	-13895
▁15,	-13896
▁Nic	-13897
flüss	-13898
werts	-13899
▁Rund	-13900
etzten	-13901
konsum	-13902
passen	-13903
wärtig	-13904
ynamik	-13905
▁Kunst	-13906
▁URBAN	-13907
▁assum	-13908
▁below	-13909
geführt	-13910
läßlich	-13911
methode	-13912
▁Norden	-13913
▁ernste	-13914
▁sports	-13915
▁vollen	-13916
▁Certain	-13917
▁contemp	-13918
▁Cohesion	-13919
▁Criminal	-13920
▁Vermarkt	-13921
▁advocate	-13922
▁einfache	-13923
▁geringen	-13924
▁scrutiny	-13925
stechnolog	-13926
▁Similarly	-13927
▁Spielraum	-13928
▁begreifen	-13929
▁component	-13930
▁integrate	-13931
▁verehrten	-13932
▁wiederher	-13933
▁zukünftig	-13934
▁apparently	-13935
▁collection	-13936
▁definitive	-13937
▁indication	-13938
▁Ausgangspunkt	-13939
4(	-13940
7(	-13941
AG	-13942
Aus	-13943
bem	-13944
ede	-13945
lete	-13946
▁Who	-13947
▁adj	-13948
▁Blok	-13949
▁Dopp	-13950
▁Kurd	-13951
▁Poos	-13952
▁deny	-13953
Länder	-13954
iertes	-13955
▁Ihres	-13956
▁India	-13957
▁Treib	-13958
▁Would	-13959
▁adequ	-13960
▁coins	-13961
▁vigor	-13962
▁Oliven	-13963
regelmäß	-13964
▁ansehen	-13965
▁benutzt	-13966
▁enormen	-13967
▁negativ	-13968
▁violent	-13969
▁Ägypten	-13970
▁Rückgang	-13971
▁dramatic	-13972
▁eröffnen	-13973
▁football	-13974
▁immerhin	-13975
▁intellig	-13976
▁offering	-13977
▁pursuing	-13978
rechtliche	-13979
reichenden	-13980
▁beantragt	-13981
▁berichten	-13982
▁desirable	-13983
mechanismen	-13984
▁Spannungen	-13985
▁Unregelmäß	-13986
▁authorised	-13987
▁criticised	-13988
▁profession	-13989
▁westlichen	-13990
▁Beschwerden	-13991
▁assessments	-13992
▁aufgetreten	-13993
▁vorankommen	-13994
▁representing	-13995
▁democratically	-13996
▁investigations	-13997
▁traditionellen	-13998
▁Infrastrukturen	-13999
wa	-14000
cks	-14001
gro	-14002
aure	-14003
aust	-14004
ints	-14005
iser	-14006
repr	-14007
▁GMO	-14008
▁Soc	-14009
ensen	-14010
junkt	-14011
oster	-14012
▁Bull	-14013
▁Rest	-14014
▁cert	-14015
estock	-14016
icated	-14017
ktiven	-14018
warten	-14019
▁Schle	-14020
▁appla	-14021
▁droht	-14022
▁loans	-14023
▁rufen	-14024
▁sight	-14025
olition	-14026
▁Armuts	-14027
▁Fahrer	-14028
▁Kontin	-14029
uestions	-14030
▁impetus	-14031
▁inneren	-14032
▁Bewegung	-14033
▁Frühjahr	-14034
▁ständige	-14035
▁zerstört	-14036
▁finanziell	-14037
▁vorzugehen	-14038
▁Statistiken	-14039
▁außergewöhn	-14040
▁Einzelheiten	-14041
▁durchgesetzt	-14042
▁Unterdrückung	-14043
▁eingeschränkt	-14044
eto	-14045
mas	-14046
aman	-14047
dorf	-14048
irac	-14049
▁inj	-14050
▁Klär	-14051
▁Wass	-14052
▁sacr	-14053
▁save	-14054
▁tank	-14055
encies	-14056
träger	-14057
▁Their	-14058
▁argue	-14059
▁enger	-14060
▁prere	-14061
periode	-14062
▁Führer	-14063
▁Govern	-14064
▁Object	-14065
▁bemerk	-14066
▁cultiv	-14067
▁religi	-14068
▁geplant	-14069
förderung	-14070
lassungen	-14071
▁attached	-14072
▁generous	-14073
▁relative	-14074
▁soldiers	-14075
konvention	-14076
verteilung	-14077
▁Einzelnen	-14078
▁appalling	-14079
▁functions	-14080
▁prerequis	-14081
▁reinforce	-14082
▁ausgewogene	-14083
▁qualitative	-14084
▁Strafgerichts	-14085
mt	-14086
ruf	-14087
üst	-14088
fähr	-14089
wegt	-14090
▁Eco	-14091
▁Jac	-14092
▁Wäl	-14093
▁anx	-14094
aring	-14095
nüpft	-14096
point	-14097
▁Empf	-14098
▁Phän	-14099
▁gäbe	-14100
racies	-14101
▁islam	-14102
▁verzö	-14103
wiegend	-14104
▁Ausbau	-14105
▁Diesen	-14106
▁Prosec	-14107
▁invite	-14108
▁bedaure	-14109
▁krimine	-14110
▁präzise	-14111
▁drittens	-14112
▁gegangen	-14113
▁nachvoll	-14114
Allgemeine	-14115
chenschaft	-14116
zeichneten	-14117
▁reporting	-14118
▁specified	-14119
▁appelliere	-14120
▁coordinate	-14121
▁procedural	-14122
▁wahrnehmen	-14123
▁definitions	-14124
▁practically	-14125
▁Europäisches	-14126
▁vereinbarten	-14127
▁gleichberecht	-14128
olf	-14129
rage	-14130
öste	-14131
▁Amb	-14132
▁Bonn	-14133
▁Vigo	-14134
▁prag	-14135
körper	-14136
▁beizu	-14137
▁borne	-14138
▁catch	-14139
▁infor	-14140
▁Theato	-14141
▁andern	-14142
▁arrive	-14143
▁betone	-14144
▁pharma	-14145
▁vermut	-14146
betriebe	-14147
stockung	-14148
▁Merkmal	-14149
▁Richter	-14150
▁dismant	-14151
▁fürchte	-14152
▁ideolog	-14153
▁joining	-14154
▁usually	-14155
möglichen	-14156
schreiben	-14157
▁abzielen	-14158
▁dieselbe	-14159
▁vielfach	-14160
▁Weiterhin	-14161
▁deadlines	-14162
▁einfachen	-14163
▁einräumen	-14164
▁erläutert	-14165
▁gründlich	-14166
▁cigarettes	-14167
▁verringert	-14168
▁automatisch	-14169
▁vorgesehene	-14170
▁durchschnitt	-14171
.'	-14172
iox	-14173
log	-14174
mung	-14175
uled	-14176
▁Ala	-14177
▁Moz	-14178
▁cat	-14179
antly	-14180
räume	-14181
▁Komm	-14182
▁Peru	-14183
▁argu	-14184
▁elig	-14185
▁reun	-14186
arians	-14187
drückt	-14188
lechts	-14189
▁Media	-14190
▁grass	-14191
▁older	-14192
▁Folter	-14193
▁Sports	-14194
▁Taiwan	-14195
▁openly	-14196
▁ratify	-14197
▁Gremien	-14198
▁Hoheits	-14199
▁Schiene	-14200
▁Tendenz	-14201
▁aktiven	-14202
▁basiert	-14203
▁partial	-14204
▁silence	-14205
igerweise	-14206
▁Bedauern	-14207
▁Gründung	-14208
▁Straftat	-14209
▁leichter	-14210
▁lifelong	-14211
kommission	-14212
zusprechen	-14213
▁Universal	-14214
▁erweitert	-14215
▁livestock	-14216
▁verfahren	-14217
▁aufrechter	-14218
▁scientists	-14219
berarbeitung	-14220
▁eingebunden	-14221
▁friedlichen	-14222
▁offiziellen	-14223
▁Jahrhunderts	-14224
▁zurückkommen	-14225
ppi	-14226
▁UC	-14227
itts	-14228
lore	-14229
▁Pur	-14230
▁ere	-14231
ektor	-14232
wider	-14233
▁Bahn	-14234
▁Camp	-14235
▁Conf	-14236
▁Kopf	-14237
▁Work	-14238
papier	-14239
reisen	-14240
würdig	-14241
▁Apart	-14242
▁Stück	-14243
▁fears	-14244
▁inhab	-14245
itarian	-14246
kapital	-14247
schluss	-14248
▁Surely	-14249
▁infrin	-14250
▁prejud	-14251
▁prompt	-14252
▁teleph	-14253
▁Bananen	-14254
▁Inneres	-14255
▁gradual	-14256
▁mergers	-14257
greifende	-14258
zahlungen	-14259
▁einzusch	-14260
▁resulted	-14261
▁Nachfrage	-14262
▁Studenten	-14263
▁abstained	-14264
[...]
